FF
F9
FD
0A
07
08
07
03
07
F2
D1
09
F0
E9
28
09
DF
05
FA
F0
E8
E3
13
0E
08
EF
D3
EE
0F
E8
EB
14
F7
ED
FD
1F
E8
D5
EB
FC
0E
F4
F7
07
05
EA
F6
1F
F8
DB
DC
0B
03
DD
D8
F3
0F
19
E1
09
FC
E4
02
04
F1
04
EB
F3
1E
06
FD
11
FC
FA
F6
1F
0F
02
F5
F7
FF
24
DF
F7
F8
F3
F6
E9
EF
03
DD
F2
28
E1
F2
22
F4
09
F7
F9
F0
D4
F9
EE
FF
14
DA
F3
11
E2
F6
0C
F2
EB
F8
E8
E3
08
02
17
F4
0B
0C
27
E6
02
03
F9
14
18
F6
EB
1F
0C
F1
EE
FC
08
F0
FE
FD
EE
17
FD
1C
EF
FD
DE
04
05
F0
31
FA
0B
DC
0D
ED
F5
FA
F4
08
0C
D7
1E
15
03
F5
02
F4
FB
ED
01
FE
D6
1F
FD
FD
0E
FA
06
F1
F9
E2
16
E9
F1
03
0D
0D
DF
F9
1A
0E
F6
FC
0A
19
E2
E0
09
15
F0
F1
06
F1
E1
EF
1A
08
E8
FD
12
14
06
F1
FC
EA
FB
F7
EA
1D
09
FA
F6
08
F2
E7
F8
FC
16
F5
0E
08
F9
0A
03
26
D8
02
F5
F6
F6
EF
1F
E4
E2
FB
02
1B
E6
DE
00
F2
ED
FB
18
E4
16
1A
1D
F1
F6
EA
16
05
DE
FB
18
F5
E4
FE
E2
1B
1C
0C
E8
02
EE
FB
07
24
F2
E9
FA
0D
05
F1
03
FE
F6
19
06
FF
F9
04
FB
15
EF
F1
F8
E9
E1
10
04
FC
E6
1F
ED
0B
EF
00
1E
E6
16
F3
09
FD
08
08
06
06
23
DF
FC
08
F4
EA
0C
F2
E6
18
F5
02
F9
50
09
01
DA
0B
05
12
18
EF
04
0E
D9
FF
DC
F6
16
F9
F4
EC
FF
EA
E6
FA
0A
ED
EF
02
F0
25
21
F1
26
F5
ED
09
EA
EA
24
FA
11
FC
DF
F3
0A
28
0C
19
FF
F5
D6
0E
E2
2A
06
FA
03
F9
E6
EF
23
F9
FA
E6
FE
FC
03
06
1A
F9
08
E0
E5
FF
05
01
E7
12
02
1D
05
03
05
0B
EE
ED
FC
0F
F3
02
E0
15
DF
02
ED
10
26
EF
0D
06
EE
EF
F6
EB
11
09
F4
F7
06
0F
01
2A
0B
01
DD
FC
F4
F1
17
03
04
07
FC
22
FC
DE
FE
0B
03
F3
FB
0C
25
04
19
04
03
01
FA
FB
F7
F6
0E
15
0E
09
FF
06
FA
FB
1E
FB
05
22
F9
FE
F7
1D
ED
DF
18
09
EB
EF
04
12
EA
DF
FB
DA
F6
DF
17
EF
EF
E1
1A
D9
E2
E2
FC
05
11
F6
EE
E8
F2
E1
08
26
04
ED
03
E0
FB
EE
0C
EE
F6
04
2D
F2
D3
F4
E0
F8
0C
FE
11
0B
D7
FD
18
07
0D
07
08
F4
C6
0A
0A
1F
0C
F4
1D
02
0B
09
0E
21
FF
17
0B
0D
F2
ED
D7
0A
F8
03
06
FA
E5
FD
03
14
0F
E9
1A
F4
DA
01
E6
09
06
11
0D
FD
EB
16
23
FA
00
0B
17
F7
DA
D7
1B
FA
01
03
05
FE
D6
02
EE
EE
02
F3
06
ED
03
EC
01
F2
0F
05
17
0B
FB
0F
05
03
13
FF
06
02
F5
F4
18
2B
F0
00
17
FC
FD
05
0B
0E
14
E1
24
08
24
E6
EB
21
12
FB
12
E7
F4
E8
0E
18
EE
F5
F3
D9
F3
DB
EC
0C
1E
CF
14
DB
E3
DC
02
0C
FB
DB
1B
D0
FE
F9
FE
2A
F5
00
0B
CD
E0
E2
0E
04
F8
DA
1C
E5
0F
E8
F4
F7
15
06
F8
02
F7
0F
FB
17
F9
DA
01
DA
D1
F6
02
FD
16
F1
E4
FA
07
EE
0A
F3
FD
F2
23
F0
E1
0A
1A
12
1F
EF
27
09
F1
0C
13
23
FD
F5
03
FE
09
FD
16
F8
07
08
25
08
F8
F6
0A
F1
F5
07
09
05
CC
F8
08
13
F9
1D
11
0F
DC
EE
F3
27
F9
F9
22
FA
0D
E2
13
FB
11
03
1E
FF
FB
ED
F1
0E
0B
0F
00
06
E0
15
F3
13
FC
18
F9
FF
09
FA
1F
12
E5
E2
06
F9
F4
07
15
0B
04
DB
0D
EB
F3
E6
06
E5
EE
D8
22
D8
10
EA
F9
1C
F7
D3
11
C3
F8
DE
05
00
E6
07
FD
D3
03
EA
E0
13
14
CF
EB
CD
D3
DE
F5
F0
0C
0C
FA
EB
D3
FB
FD
08
F9
F4
10
FA
D3
F4
11
11
F8
EF
F8
F8
F1
FC
E1
F7
12
04
F4
FB
ED
EF
0C
FD
1C
FE
0E
FD
E2
FE
0A
02
FE
E6
1F
EF
E5
E6
F8
16
27
E8
20
05
E3
F1
EF
EE
ED
0D
11
16
FB
F3
FF
14
01
FF
15
10
02
E5
28
29
13
13
16
E6
00
D2
26
FD
03
04
05
07
06
F1
0E
05
0D
E2
0F
02
E1
07
F7
1C
FA
14
30
F7
EE
00
FA
3D
06
1C
04
06
07
05
1A
10
F6
EE
0A
EB
04
EB
DF
1D
09
D5
E8
D6
F4
F0
0F
1D
EA
F2
F8
A6
0B
DC
09
08
24
EE
24
AA
E4
CB
15
EF
E7
E9
0C
CF
06
E3
12
11
00
07
14
D7
DE
F6
0F
0B
04
FB
0D
F8
0D
F6
1B
F1
21
DD
FC
F4
E9
F8
E8
F7
06
03
1E
CE
E1
EA
F6
05
F9
16
15
04
E0
14
F7
1E
1C
0A
27
EF
F3
0F
F3
EE
04
F8
F1
07
E3
05
0B
00
1C
15
27
07
F7
FA
0B
FA
FA
17
13
E1
F5
FB
0C
21
2F
D7
FB
F5
FD
D3
F4
07
0E
FD
0B
FC
FA
F5
0E
02
FA
FA
19
FD
FA
FC
13
24
0C
E4
31
F8
12
F4
04
18
29
27
19
FC
08
11
E3
07
FE
26
40
05
02
04
02
0F
EE
F4
27
EA
F4
F5
11
26
0B
E7
05
D2
F6
EA
FA
0B
F9
FA
16
BA
00
FB
0D
0B
F9
E6
F6
C5
F8
F6
01
0F
ED
ED
13
CD
0D
DA
06
17
EE
07
1D
B8
FA
E2
EA
F2
EE
04
00
DC
D0
FB
F5
EC
FE
F1
0D
F0
DB
F9
0D
03
03
0E
0A
DA
D6
01
F2
06
14
1C
1F
E8
E8
0E
FD
0C
F5
F3
3D
F3
05
10
FA
1B
18
08
36
09
F1
EB
F9
22
01
F3
F7
FF
F0
0C
E9
01
29
21
15
03
EE
E9
1A
F7
15
06
25
FA
F0
E4
F1
1F
01
DC
2D
CE
E9
EA
0B
06
2C
0A
30
E7
09
F4
F0
10
29
F9
3D
E7
DC
E4
F7
3B
27
23
3A
0A
06
0E
FD
2C
07
2B
1C
FA
00
F9
11
EA
14
EB
FC
18
03
F1
16
12
04
CF
12
DD
E4
0E
F0
09
E8
F3
FB
A8
F9
EE
FB
1E
1D
FD
05
AB
E5
FF
01
FE
04
F9
02
B9
DC
DF
05
F1
EF
F1
1E
C7
EE
F7
1E
00
00
F8
10
EC
E8
04
0F
F6
FF
04
09
E0
0A
0E
E4
F0
F1
16
2B
D3
E1
0A
EF
F9
FE
0B
22
F5
01
0A
F8
02
00
17
19
F3
05
21
FA
EE
EE
12
F2
FA
F5
05
12
EE
E4
28
FA
F1
03
15
16
18
FD
0F
21
04
F4
E5
0C
06
13
DE
36
E8
FB
E7
FD
F6
12
0E
1D
EA
F8
D4
E8
19
07
E5
1C
F7
0C
EF
05
0F
09
DD
1A
EA
D7
F9
F9
12
17
2E
10
08
FE
14
F5
1D
FA
06
33
ED
FE
F7
11
F0
15
E2
24
F6
0A
E2
FC
23
12
DD
11
FD
E5
08
FF
15
F6
F1
1B
AE
FE
E6
15
2C
2D
15
15
C5
F8
EA
E7
07
04
FE
28
A1
F2
E1
F9
F8
FF
F4
22
B4
DB
03
20
E6
F3
0E
19
E3
0A
FA
EE
F3
E5
D8
F9
F1
DE
06
05
F2
F5
E7
16
D8
FE
07
EA
EE
0E
FA
FF
DB
E7
03
ED
01
FD
09
1A
FA
E6
05
10
E9
01
1F
13
F7
F6
FB
13
FF
DB
ED
FE
0A
10
09
29
F5
04
F5
26
0D
0C
F9
16
FA
02
F4
2E
DE
F5
E1
1D
FB
02
0B
23
07
EA
D9
0A
F3
0A
0F
1E
E7
F1
D7
0B
F6
FF
0D
24
CC
0A
EE
DA
14
12
11
29
F4
1A
EF
0B
FA
EC
0C
1B
F4
FF
F5
EF
0F
10
D4
04
F9
F8
EC
F9
21
05
D3
27
F3
17
FF
F6
15
F9
ED
0A
AC
02
FD
FB
04
29
06
03
B8
E6
D5
17
09
1B
F6
1B
AB
DC
DF
FD
06
09
09
37
BB
ED
19
D7
E2
DD
05
01
EC
FB
E4
0E
EB
F0
03
17
04
EB
09
EE
EB
E7
0C
16
CB
0E
17
D8
E1
F8
2B
19
DE
EB
10
F2
FF
F8
EE
0E
E7
F0
15
08
F8
DF
06
0D
F9
14
FA
0B
04
FD
15
23
20
FF
FD
1D
0C
F1
FE
15
0A
02
ED
FE
FB
04
FB
1E
DD
05
E0
16
F9
F6
FD
32
DC
F2
D3
08
F4
EC
17
25
E2
F0
EE
F1
0D
FE
13
2D
01
11
D4
E4
07
FB
32
11
14
07
D7
02
10
EB
2B
1D
01
FC
F3
F0
13
1A
DB
20
00
F0
F0
05
16
03
D4
E3
C2
F0
06
02
1E
0A
EC
1F
AB
EA
FA
E3
20
22
03
1B
B3
0E
E3
F3
1D
27
E3
10
A7
DA
F3
00
0A
0A
04
FB
B2
0F
0C
F5
07
FF
13
1E
DB
F6
F9
EF
E8
E7
FB
18
EB
EC
09
DA
F1
F0
0B
04
E1
FA
1C
25
EE
01
0B
29
D7
0C
04
0B
EF
FD
1C
FC
F1
FB
0B
0F
DF
ED
17
38
0C
D7
FF
FD
01
FC
FB
FB
18
1A
18
E3
F9
F4
FA
20
06
09
11
08
1D
F8
FA
1D
F5
1C
F5
FE
03
07
E4
33
C8
0C
E1
13
FF
E5
10
2C
D3
F0
ED
04
07
01
F1
16
E0
13
FA
11
07
FA
19
16
01
00
07
26
00
EC
1D
23
05
F4
07
17
2C
1D
EE
F0
0C
09
E3
1A
24
0B
F3
1E
CE
FE
FE
12
21
1A
F6
23
C3
03
F4
10
1A
2A
F4
08
BF
FF
04
F4
0B
1D
1A
F8
CC
00
F7
13
F4
FD
F4
19
BD
EF
0C
0D
02
FC
12
13
E9
E7
F5
FA
FA
F6
1A
2E
CE
D4
01
12
FD
FC
26
10
CC
E7
EE
13
EE
FF
EF
EA
00
0E
1A
17
04
0C
04
0C
E6
F3
F6
DB
DD
04
F4
22
11
16
F3
07
EC
F8
F2
07
03
02
F5
0A
F6
02
1D
1B
11
06
F8
06
02
EA
F3
1D
CE
00
ED
F9
EF
F6
EC
22
C7
F0
ED
DB
E0
02
11
07
E8
F0
D1
ED
FF
FD
0C
2E
D4
ED
EC
0E
F1
07
01
0E
0E
FE
DA
0B
0A
0A
1F
2E
13
07
00
07
14
21
E9
FC
F0
1E
D7
EA
34
07
C6
0C
D4
EC
FD
06
24
0A
F3
15
AF
FF
E9
F1
0D
3E
E9
18
BA
13
ED
D7
0B
31
05
0E
AF
13
D6
0E
10
02
02
14
CB
D5
F9
0C
F9
0E
1F
24
D5
EB
FF
F1
F5
0C
08
07
F4
D7
06
10
E8
EF
FC
2F
EE
F1
18
F8
F4
02
11
21
D3
12
14
E4
F4
02
05
24
CA
F2
F3
EB
E7
F8
16
1A
EB
0D
05
16
F1
EC
11
1C
09
1E
E0
E6
FA
0E
0D
2A
EA
2E
ED
F9
F7
16
09
05
DD
D6
02
EB
F5
F3
E4
3B
ED
04
E0
0E
FD
09
FD
35
DC
18
F3
04
FA
05
15
34
E5
E1
E4
F4
E0
F9
08
32
04
08
F4
0F
FF
08
09
2F
06
02
FD
05
0C
24
E3
1E
F5
0C
DD
F8
18
20
D8
14
EF
F4
17
08
25
14
04
06
B0
F5
F5
09
0F
3E
FF
28
B3
F5
19
D8
14
21
D9
F7
B7
E5
FE
E7
07
1E
04
15
C5
F9
14
20
EB
01
01
18
CE
00
E6
E2
F7
FB
F3
0D
D3
F3
04
F8
F0
03
F1
25
B5
EF
05
E0
01
F6
04
16
D1
01
0A
21
01
05
0E
01
F0
0A
F3
00
03
F8
FA
03
0B
DE
FE
FF
FB
EA
09
02
F5
E8
E7
08
00
F5
F8
0F
13
FA
EB
E8
FB
1F
08
16
E6
FA
E1
00
03
DD
F1
26
E5
1D
D9
FF
F2
F8
FF
33
EA
E5
03
0C
07
F9
F8
0F
E1
1E
DD
0F
00
F1
06
21
09
05
F3
EC
E6
04
07
32
F1
F9
F2
01
18
1F
D2
E2
0A
F4
CA
FC
28
16
C2
10
F2
FC
08
E9
2A
0F
FA
F5
A9
07
EC
E9
19
43
0B
1C
A6
E9
F4
16
0D
2B
FC
11
9A
E1
F1
1C
F5
0F
E4
18
C0
D9
14
26
E6
F8
0A
17
EC
FB
E1
22
DF
F2
FE
1E
D4
EB
D7
0E
08
F6
EF
FC
E6
D4
F7
0B
FB
F5
01
25
D7
FB
0D
FE
FF
F3
1D
32
FE
EE
12
F2
0C
EC
02
10
EF
01
F2
0B
F3
F7
FA
25
FB
0D
11
15
04
FC
0C
21
12
29
00
FA
F6
F5
06
22
EA
E2
EE
00
FD
F0
0B
1D
D3
E4
E4
0A
FC
E8
EA
2C
ED
ED
EF
E8
F2
05
FD
15
D8
DA
CA
EE
FA
00
FE
0E
F2
F0
0E
F5
04
03
1D
2B
EE
05
0F
10
13
35
E2
04
10
DF
CF
EB
40
26
E4
03
F3
F9
F5
14
24
2A
DF
FE
AB
E5
FE
1C
27
35
DB
FF
AC
01
F6
FC
19
1A
11
1F
A8
F5
02
0F
1A
1F
F7
F2
A2
00
15
22
E4
13
00
09
D9
D5
02
19
FD
F8
E7
FF
FB
E0
EF
F7
EE
F3
F3
19
B0
DF
00
0F
08
F3
15
17
EC
0F
11
14
02
08
10
17
E6
08
F7
00
ED
F7
29
07
10
05
05
E7
ED
F4
F9
15
F9
F0
08
00
03
09
21
28
F6
0E
FB
F3
03
F7
0F
0C
F0
F5
E3
D8
F8
F2
09
1C
E7
FB
E4
F6
FA
F8
F1
42
F6
DA
DD
D7
FA
FF
2F
2C
DA
0A
DE
EC
F1
14
FB
1D
EB
EE
F2
EB
F3
ED
0E
35
F0
06
19
04
2F
23
E2
07
13
0F
E9
F0
22
2E
D9
1A
CB
ED
FD
04
27
1E
F6
07
96
D6
D8
11
18
56
D2
FB
92
FC
0B
0A
17
2C
E5
04
A2
F8
E2
04
1A
0D
EB
11
A2
E5
E5
F8
02
F7
17
03
CA
E9
0C
1F
FE
F5
18
12
DD
08
15
FF
FC
F6
E1
1D
E2
E1
FE
FC
03
FF
F2
23
D2
01
13
DD
F3
F4
F2
07
EF
03
15
21
D8
F8
09
F3
E8
EA
E8
F2
08
F0
04
1A
F2
19
FB
1B
15
FC
1D
30
E5
1E
09
E8
E9
09
F7
2A
E1
0E
00
21
F3
FF
FB
01
DF
F2
FE
F4
FC
F0
0B
0B
DD
E4
D2
14
F7
FE
0B
39
01
E6
E4
27
FA
E4
04
2C
E2
04
F5
07
F2
03
F0
10
F5
F6
FC
16
22
1B
F8
11
E4
09
F6
F0
41
1E
CF
04
EA
EE
0E
F6
1B
2F
C7
F1
BA
EF
0F
16
1E
39
05
1E
90
E6
0D
FA
22
3F
E3
23
A5
E3
E9
0F
05
27
02
11
99
05
FA
05
03
01
FF
26
D3
F7
F7
F9
05
F4
EF
23
D2
DD
05
08
FA
FF
03
04
BD
D7
14
06
EF
06
E5
05
EA
EA
02
FD
0D
00
08
FF
E7
FB
FE
13
FE
EC
F9
02
F3
FF
FF
08
04
ED
19
1D
FA
0A
0D
F2
0F
EC
25
1C
EC
0B
01
FF
01
F6
08
09
E8
E2
EC
23
E5
E9
F0
2E
BD
E1
EF
14
E9
F6
F5
1D
DC
E3
D7
FC
F9
F2
FE
24
F2
05
D5
ED
E9
F9
FA
2D
F0
FE
EE
F2
E8
F7
06
14
01
10
06
F3
0E
0E
C2
1D
F2
1C
ED
E3
53
21
B8
0C
DE
03
15
EB
46
39
DF
F6
A3
EE
F6
E0
33
50
DD
27
9F
07
13
E2
1F
35
ED
1F
B7
07
11
ED
17
28
F4
20
C1
EC
EF
16
02
FA
E0
1B
F7
DB
FD
0A
E7
FB
E7
25
E2
E7
F8
F0
EE
E9
02
06
C9
E4
14
E3
E2
F7
F8
FD
DD
E2
08
0A
E4
05
F5
16
E7
01
00
1C
E7
F0
F6
19
FE
0C
F2
06
03
E8
0B
FE
E3
19
08
1A
10
FD
00
21
F0
EB
18
02
F3
04
F0
18
DB
05
01
DE
ED
E9
23
15
AF
E6
F1
0A
E6
EA
01
18
D8
FD
F1
E6
EC
F5
0E
1E
CC
FC
E7
00
E9
11
00
30
F9
14
F4
19
DD
F7
F7
2F
F4
F2
FF
27
15
1C
BC
2F
E9
14
F5
E8
44
30
E8
1D
E4
18
11
00
0C
2B
F3
29
96
E0
06
EE
3E
55
DC
13
98
DF
F0
FE
17
33
E8
09
A3
07
EF
0E
1D
37
DD
FE
B5
00
F7
E0
EA
FD
FD
19
BC
FD
15
FE
01
F3
D5
20
BF
E3
15
0E
F0
F6
F2
14
CC
F0
F7
04
F2
FF
0B
02
D2
D8
FA
FC
E5
02
00
FB
F0
DC
1E
10
02
01
00
18
E9
DB
1E
F6
FC
03
EF
0A
00
16
00
0F
F4
16
FA
0B
E2
FA
E0
07
FB
02
21
0E
DD
0B
EA
F0
EB
FB
19
09
D4
F2
EF
0B
00
EB
1A
2F
EA
06
03
F6
F8
FB
FE
1D
EA
DD
ED
FD
FB
E7
FE
18
F4
FC
0B
F6
FC
0B
FB
28
07
FF
07
1E
03
21
CF
22
05
E6
EA
E7
43
2E
E7
14
FB
0A
1E
FE
2C
24
D5
FD
9E
D1
F2
1C
32
51
01
F3
AC
E1
F4
E5
1C
37
F1
0F
A7
DB
00
F6
0F
18
E1
10
C9
C5
E8
EB
F2
FD
F6
02
C2
FF
00
19
03
0F
02
22
D4
E7
07
0F
E5
1A
09
0B
DC
D2
00
05
EE
F8
DC
14
D0
0A
0A
FA
EB
04
F3
06
DE
05
FB
FD
E3
EC
FD
14
D7
11
0E
E6
06
EC
DE
22
D7
00
03
F5
F5
0D
01
05
EA
0B
16
04
FF
13
F3
12
D2
DF
0B
E4
06
F6
08
2D
D3
D6
E7
0A
EC
FF
FE
01
DF
F4
DF
1C
FE
F9
F7
13
CA
FF
03
06
E9
F7
06
08
D7
F3
ED
08
E3
FD
0C
11
15
FB
15
08
28
40
E7
0D
08
EC
E8
16
67
46
C8
16
F1
02
24
00
3A
43
D6
12
AE
E7
F4
F8
3A
65
E4
0C
B2
EF
1F
E8
29
59
F8
11
C4
E1
FE
FA
27
43
C9
1E
BB
FB
F3
13
15
0D
F1
13
CD
F0
07
19
07
00
D8
EB
BF
F0
FC
F6
EF
16
01
02
C1
DF
FD
E9
06
06
F1
08
D7
CC
FB
0E
FC
14
F2
1A
E2
0D
EB
09
07
10
E6
13
EB
F5
15
14
EB
FE
F9
17
D2
E3
1E
F5
04
0A
F1
0E
DE
E7
01
20
0C
FC
DC
F9
E5
E9
FF
1D
0A
FE
EC
25
AF
D2
01
16
FC
17
E8
1E
CD
D9
E2
F1
EB
08
FF
33
E5
FB
EB
04
FE
F7
FD
1F
EE
FF
ED
F8
E0
FF
FD
2B
0A
F5
15
1D
F3
3F
16
F6
F2
EE
F4
EF
F0
56
0A
1A
BC
FC
2F
FB
F0
56
1E
0E
C6
E8
06
0B
11
62
3E
F9
B8
C9
ED
EB
02
63
2C
FD
C5
E9
00
17
0F
37
FE
20
CC
E0
E0
0E
E6
20
0A
FD
DF
EE
0B
02
EE
1F
FB
06
D2
ED
FE
EB
FC
12
FD
14
00
D8
08
F6
EC
17
F9
10
00
D9
18
F1
EE
0F
F4
03
EE
EB
F0
EF
F2
06
04
00
F4
0F
09
06
F7
0B
FD
01
03
03
F4
F6
DD
14
1C
EF
F1
DD
F7
13
D9
15
EF
02
D2
E7
05
05
E2
09
F2
11
F5
BA
F0
04
E0
01
06
10
E6
EF
FC
12
F9
F4
1B
2F
E3
0F
D7
F6
0B
11
F7
0C
00
06
18
EF
06
03
0A
09
F6
1A
0D
ED
FE
2C
43
F4
E5
DE
F5
02
25
5A
49
D4
E6
24
1E
F7
0E
5C
5D
F0
F9
E4
1C
EB
28
7F
5B
EC
FA
DB
0C
F5
20
49
51
E1
ED
E6
0E
26
28
33
35
05
E1
E4
1F
FC
F9
39
18
04
ED
ED
01
E7
E6
08
09
03
E7
F9
0E
06
EC
08
12
1A
DA
EF
DF
F9
E2
1E
1C
00
12
D7
01
F7
21
17
13
19
DE
E0
EC
16
01
1B
06
0C
F0
E8
18
03
06
0E
09
FA
03
F3
DD
01
FB
0A
2A
F4
F6
DA
E9
FE
E9
12
19
E9
05
DF
00
EB
F2
10
0C
E1
CD
CB
F2
1F
D9
0C
FA
FB
E8
DE
00
FC
E5
00
11
02
E6
17
14
00
F2
FD
00
E1
10
24
12
EC
ED
1E
09
18
03
0C
04
F4
15
0F
10
18
D6
29
10
04
1C
EF
0F
0C
C7
04
FE
EB
FF
F5
E3
15
FE
CB
10
FF
12
FB
E4
EB
F9
00
02
F1
14
13
01
02
F9
01
06
0C
F5
0A
1E
01
19
0E
05
F5
0A
FF
FF
F2
FB
DB
F8
06
17
F2
F7
0D
0E
F4
FA
F7
14
DB
E0
FD
08
16
F7
16
FC
09
27
07
09
FB
0A
FC
0C
E4
DB
EE
FF
10
F3
09
FA
F4
23
F3
F4
19
FF
FA
FF
19
0F
11
ED
EC
F8
0F
10
F3
FF
0B
F7
06
0B
0E
07
E4
18
0A
08
0E
02
0A
05
19
02
F3
FE
FE
0B
0F
FC
FA
05
F9
E2
F9
1B
F7
0F
07
FC
12
FE
01
FD
F0
04
F4
FD
07
F2
04
04
07
EF
0C
ED
0E
F6
EF
08
07
04
E9
F3
20
DA
15
F8
FF
EC
E0
F6
FF
E9
08
01
10
F0
FC
E9
08
E8
F5
F8
E5
17
E6
03
FC
09
F5
DD
F2
FF
05
F6
F8
F5
07
FC
F1
04
F3
13
E1
0F
F2
0A
F9
FD
1C
E0
11
1B
E6
EF
05
05
0C
23
10
09
FE
F7
1A
F1
FC
11
1D
FF
03
03
E6
07
11
0C
0D
16
05
05
25
F3
10
10
06
09
E8
1A
F0
EE
09
FF
24
F7
FB
E6
06
FA
08
03
00
F2
04
F0
EB
14
1C
03
21
14
1D
FE
03
F6
02
09
FF
00
13
EF
10
1E
0B
1D
1C
F1
F6
E7
FD
14
01
FF
13
F7
FC
00
21
E3
EB
07
0E
09
F1
F8
FD
03
EE
19
FD
FF
FB
FF
EA
FB
07
F0
0A
04
04
0B
12
FE
0B
E0
FF
F6
E5
FC
11
ED
FD
15
03
DD
DB
04
FE
FF
0E
FF
FA
FB
E5
EF
F6
FE
22
0F
E8
FE
F4
FD
D9
03
0A
DF
CF
F1
14
05
FD
FB
F3
FB
FB
0F
F8
05
09
03
F7
05
05
13
FB
EB
23
E7
18
FB
00
FE
DD
E9
EA
D3
E8
1A
EF
01
F1
09
1D
D8
FC
DA
19
03
EC
E5
F3
ED
0A
F4
13
0B
F7
0C
00
F9
EA
E3
FE
FF
0D
0A
1B
D7
17
EB
E9
00
0E
EE
24
EF
09
07
F0
F5
07
F5
F5
10
17
06
F7
FC
02
FB
F9
E7
0A
26
F3
01
01
09
0B
02
27
F8
EE
FD
1C
F8
F2
0F
FC
0D
E0
EA
02
0B
00
E0
08
FE
10
04
FE
EB
13
01
0C
0E
ED
09
01
0C
E3
10
DF
D1
14
F3
EF
09
F0
EE
E5
11
F4
F6
00
E8
20
0A
FC
EA
F7
02
16
E7
F3
0D
E4
04
E6
EF
F8
0F
23
02
E0
01
01
01
05
F5
0D
F5
F5
E1
FF
04
00
F4
0D
EE
F1
EF
F7
0B
FF
1B
EC
05
E7
F3
13
12
F2
F3
FC
EA
06
FE
13
12
DB
11
E2
FC
0D
1C
E8
1D
FC
F2
E2
13
1D
DA
F6
1C
18
1E
F4
FA
03
DC
0F
FF
FF
18
0B
ED
F1
F8
02
F4
10
F9
EB
0B
0E
0F
01
02
1B
06
10
00
E7
23
0D
F6
11
08
F5
0F
05
13
F7
01
01
0C
F6
F9
F0
29
01
E9
11
02
FA
EB
16
0E
10
09
0E
1C
0A
E3
D3
01
E3
00
06
E2
E9
19
EF
12
F3
FC
02
0B
0C
0D
ED
FD
F6
F9
E9
F2
28
FE
03
EC
03
00
F8
DE
0D
25
07
1A
E7
FD
29
D8
F7
FB
DE
0C
08
06
22
EE
1D
05
07
F0
FB
FE
07
F1
04
E9
01
FC
F1
00
EB
E3
08
EC
FE
04
EB
FC
01
F6
0E
DF
F8
12
E3
16
DC
21
0A
E6
06
E5
10
07
F7
1E
DE
E3
07
16
ED
23
F2
12
0D
E9
F9
E8
FE
0E
02
18
0A
EA
EC
FB
FE
0C
1B
19
20
FA
07
E5
0C
04
27
DB
E6
FE
0D
0A
0A
FE
39
DD
DE
05
EC
09
05
0A
2C
F4
02
1F
D3
24
EE
0F
3C
F5
FD
F8
F8
12
F5
F3
19
F9
DA
F6
0A
0A
F4
09
0F
FC
00
01
01
F3
F8
05
F3
0C
19
0E
FD
FA
E1
FC
0C
03
FB
1B
06
CC
E4
08
F9
10
E9
06
00
17
E8
0D
12
CA
F5
23
E4
21
F6
19
33
DD
FA
0C
01
14
07
00
34
DA
05
07
01
07
E4
06
24
02
FF
F0
09
FC
F4
03
06
EE
08
E2
1D
FA
0C
FC
02
03
E5
F0
E2
0A
18
12
0C
1E
20
ED
20
E4
01
2A
09
0D
0E
D0
F4
DD
FD
2B
F2
08
0C
F8
F7
FC
F9
15
EF
19
1C
01
FF
E2
01
F3
30
0E
FB
15
E8
1C
00
FA
16
EF
EA
FB
05
F0
0E
02
13
F4
01
03
E5
29
07
09
24
F9
E3
F8
DE
2D
F4
F5
40
ED
DF
07
EF
0F
0A
0B
32
0D
E8
00
E6
F6
FC
FD
19
11
09
F3
03
EA
F1
FB
02
FD
06
FF
FE
09
EC
06
0C
15
F9
06
D7
E3
F7
ED
01
03
FD
14
01
0E
E0
37
0D
D2
18
2F
EA
12
0D
05
3A
D5
07
1E
F2
21
11
F9
36
D3
F5
12
F6
FB
F6
06
0F
DE
F9
06
09
DF
FF
0B
F3
F5
01
F1
EA
F2
02
12
FC
0E
EE
F8
EB
00
EF
21
0F
09
EF
EB
1E
EF
F2
26
F9
17
F1
F1
F0
0C
10
1D
FF
1D
06
03
F6
FB
14
1B
03
22
FD
EC
03
FA
F8
01
2B
1E
1B
09
09
07
FF
F0
20
EE
14
FB
F6
F8
11
D9
29
F4
FA
07
EF
20
F9
F2
30
EE
F0
F3
D6
0D
FE
03
36
F5
D7
01
E6
04
F0
05
1F
0F
DD
FF
F8
1F
F2
04
37
FA
00
FD
F8
10
E1
FB
0D
ED
F6
E2
FE
08
FE
07
08
08
11
0A
F0
F8
F5
04
EA
08
12
06
0D
0F
10
40
28
C0
FB
3F
08
1D
09
1B
3D
EE
F4
29
13
20
FC
11
4C
DB
02
15
05
EC
EB
0A
22
E7
00
02
01
D4
EA
0A
F3
E3
F8
F5
FA
01
0D
19
06
24
13
02
F5
F1
F1
1B
0F
19
04
E3
F9
E7
02
29
FC
29
EC
E9
04
DC
22
1D
FD
1F
01
EC
E8
F5
14
1B
19
06
0E
02
0D
F9
06
FC
15
07
FA
0C
E1
18
1A
E8
1B
E9
EF
0A
18
FC
05
F9
14
DC
04
01
FF
07
FD
F0
2C
F2
EC
0E
E7
1A
05
E8
35
13
09
F9
07
FE
FA
0D
40
0C
EA
F4
04
01
11
FC
23
EB
F4
E9
04
EB
E7
07
09
FB
F1
F6
FD
02
FA
02
FF
00
FF
F1
F1
1A
E9
10
E3
0B
0C
08
04
1B
0A
2B
10
E1
01
1F
06
04
EC
19
49
EE
F8
22
0C
20
02
07
31
E7
FF
0F
F0
FD
EA
13
26
CE
FA
FF
EE
E9
FE
15
08
04
05
0D
FA
DD
F8
07
0B
33
EF
EC
F9
D9
E6
1D
10
41
F6
DF
11
E3
14
1D
FB
2B
15
DC
09
F6
05
16
00
1C
27
E4
FC
F7
16
08
08
2F
DD
F8
FA
E9
0E
0B
0B
02
12
02
FD
19
03
EB
11
F4
09
09
15
12
0D
EF
1C
E4
FE
17
0C
09
04
EA
2F
F2
1E
02
FB
FE
E3
00
2E
04
F9
0C
05
27
0C
07
2D
F7
0B
FB
F9
1C
DF
11
36
05
F2
02
F8
0B
07
05
FB
FC
0E
13
FA
FB
09
F5
FD
06
15
F9
03
18
FD
1A
0A
03
E2
FB
00
1E
FE
4F
27
E1
F7
31
F0
1B
EC
07
5F
E2
F8
40
05
17
24
0C
3C
F3
10
13
F8
0B
F3
F9
36
E1
F3
F4
E8
EF
F8
FC
EB
E3
FB
F0
EE
DB
06
0C
11
1E
10
E2
E9
EB
0D
34
0F
43
D9
EF
08
EC
05
1D
02
33
EF
F4
F7
E6
F9
22
07
04
06
E9
02
F0
FC
24
20
24
17
E6
0F
05
F6
FC
1F
F2
01
0D
E7
FF
1D
F0
FA
D0
00
FF
0E
23
F9
F3
11
DE
0D
05
04
0B
0B
FB
26
0D
0D
FF
E8
16
E8
0B
3C
18
E4
04
FF
FA
F3
FF
40
EE
06
FC
0D
00
F7
13
3F
F7
13
06
08
F9
13
F2
19
FD
F9
F3
E6
FC
07
F6
FD
0A
22
00
01
19
FF
E7
FF
08
FD
03
FD
1F
E7
28
08
DE
F3
43
F6
0C
FE
1E
52
F2
04
17
F2
08
0D
04
38
DE
0C
10
EF
DF
0F
01
24
DE
E1
0D
FD
D4
F6
12
0E
ED
01
F0
F3
FD
FF
18
F3
36
DA
F6
EF
E8
EF
37
27
4E
F8
F4
FF
E5
F3
32
0B
36
08
E9
F6
E2
13
21
FE
12
ED
DD
FB
F8
05
0F
03
1C
04
FC
F2
23
0E
03
FC
F9
18
F7
01
1B
03
F5
FD
DE
F3
19
FC
11
02
E7
13
DE
D8
F2
05
28
02
02
27
07
08
FF
07
27
0E
19
40
FB
02
0C
F6
0D
07
0F
47
F8
05
0E
FD
03
1E
07
32
E7
F6
24
01
01
02
0A
FF
F6
26
15
F0
04
13
03
FA
FE
F6
F1
09
2A
E6
EA
F6
17
13
EB
FF
15
EB
23
06
C8
F6
33
EB
F4
E7
12
2A
E3
E6
32
FA
16
15
17
40
F1
08
1A
F3
F6
0C
0C
11
D0
22
02
EE
EA
F4
F8
F9
13
10
17
F5
F1
0A
0E
FD
32
DA
F1
E2
DB
F2
34
1F
53
FC
E4
F2
F6
F2
1D
04
4A
EC
EE
06
DF
01
1A
04
27
FC
E6
FD
D9
FD
0E
00
0C
16
F3
03
F7
FC
0E
0F
09
06
06
04
08
02
ED
F5
E4
E6
07
06
03
18
EA
13
E2
FA
10
F2
02
EC
03
3C
F6
F6
0A
10
09
F8
15
24
FD
0D
09
01
00
FF
00
1A
F0
EE
08
03
1D
05
16
46
E6
F8
08
00
09
09
FF
01
FC
20
FC
EC
05
1B
03
F1
12
E4
FA
24
1C
F5
F2
05
11
E7
FA
02
20
EA
31
10
CF
D8
33
EE
FF
09
20
3F
E2
0A
29
EE
3A
F2
1E
39
02
1E
FE
F2
EF
E2
0D
0F
F1
19
02
E7
EC
FF
FE
E4
FE
FB
02
F6
F1
F4
07
1A
2A
F9
06
F9
DA
F4
22
02
4F
0A
F3
FC
F3
F6
25
0A
28
01
F7
09
E6
05
28
F7
1E
F2
EE
13
EE
05
0F
0A
09
E8
E8
0E
05
12
0F
15
02
EC
F8
02
F7
05
F8
FF
DC
00
01
00
12
17
EC
19
FA
09
FA
F3
1D
0B
07
25
EA
0C
F5
FA
04
F7
FE
33
FE
14
EF
04
F0
00
00
3A
EA
FA
10
01
E4
00
FF
23
E9
26
15
10
04
14
0D
08
F8
FD
10
FB
00
21
06
FA
0F
08
F1
09
28
F0
D8
0D
08
09
02
FB
12
03
0E
FB
CE
F0
39
E5
09
F6
1F
35
DD
1C
25
EF
17
0C
F6
3E
F0
21
08
FF
D7
FC
FD
1F
E5
18
12
E9
F5
E9
12
F6
02
13
F4
0A
FD
03
09
08
2F
07
EE
FD
D7
00
2B
29
3B
DB
DE
F1
E1
F7
47
12
35
0C
E4
09
EF
17
2B
EA
2D
F8
E8
18
EF
03
11
0A
10
FF
E8
07
0C
07
03
18
05
08
F8
F8
06
18
E9
F9
E0
0F
0D
18
04
01
F0
1C
F6
14
FD
12
0C
0C
02
34
F6
E6
FD
F9
F9
FD
00
2A
FC
F9
FF
0A
FE
1B
F5
34
DC
F9
15
13
E7
1B
F7
25
FD
09
08
0A
F0
17
0F
04
F4
E9
06
07
F5
02
FC
F5
09
EE
F1
07
38
03
05
0F
16
0F
ED
FF
21
F8
34
07
D1
F9
27
00
0C
21
18
42
E6
02
1A
F1
2F
F1
0E
3B
EE
F8
08
EA
FE
F9
03
18
F5
F8
0D
EB
01
10
09
02
15
FB
F1
0B
F2
06
08
09
2F
19
02
FE
E4
06
1F
17
49
F2
E2
02
EF
04
26
16
3F
08
F1
0A
FD
F9
28
01
15
0B
F9
10
DC
02
20
F7
16
E6
09
03
F1
F5
12
1C
FB
2A
08
FA
0A
16
F6
15
F0
06
11
FD
0E
F9
F6
12
ED
F3
FD
1F
0B
FA
08
30
F8
FF
0B
EB
10
FF
07
22
0D
07
09
03
F6
F8
FC
26
F8
EE
11
02
03
0A
EF
38
FE
13
1B
09
FE
06
05
F3
04
DF
FC
00
E7
15
EC
F1
F8
FC
ED
05
0E
F3
15
09
01
0D
FD
00
24
E2
31
13
D5
1B
2B
E8
03
08
1D
33
DC
FD
24
E4
20
FA
07
33
01
12
06
F5
EF
F7
FA
13
01
EC
EE
E0
FD
0D
FF
09
F6
00
ED
07
EA
0E
FF
0E
26
FC
F0
E7
E7
FE
30
FF
24
04
06
F4
F5
F8
23
0E
3D
F2
FD
04
E8
FB
23
FE
33
E1
01
FD
DC
FB
0E
FA
22
FB
11
FA
FF
08
21
30
13
03
F2
03
F8
0F
EC
0D
EF
0F
10
10
0F
F6
F9
1E
F7
E5
08
FA
09
FF
00
15
02
00
08
FE
FB
0E
15
28
FA
FB
13
06
FB
05
F6
11
F6
0B
06
15
E1
00
E9
0F
E1
1D
18
FD
0B
0F
FF
F2
F5
FD
14
FF
F4
FE
E2
F8
14
0B
EB
07
35
E2
EB
0B
04
22
FE
0E
1D
F2
24
11
CC
EC
25
F7
FF
F9
06
29
E4
07
1C
DB
F8
1D
FA
44
F2
01
0F
E6
11
03
EE
17
06
E0
0C
D8
E9
FD
11
FE
07
DD
EA
FF
DE
DD
0A
09
30
F2
01
E4
E0
EB
2D
12
2D
EB
FC
F0
E8
F9
1F
08
3F
EB
0E
13
F9
0C
1C
02
25
EC
F6
05
F3
F4
18
08
12
E9
FB
FD
F9
08
13
1C
08
EC
FE
02
F1
19
F3
1D
F1
07
11
12
FA
F2
F6
0D
FF
17
0A
FB
1F
F8
11
24
F6
FC
FE
07
ED
05
1C
21
FE
FE
16
0D
08
0F
09
33
F4
1F
14
0C
FE
F5
EB
2A
EE
F3
12
19
EC
01
06
F7
05
22
0B
EB
EB
06
E1
F5
0D
EE
FB
0A
31
FF
E3
EA
18
09
E3
07
1A
F8
15
FC
CC
F2
2A
E5
01
EA
10
1F
D9
02
13
F6
16
01
0E
3C
02
17
04
F1
F7
02
07
0C
02
1F
F4
E6
F0
E9
05
F4
FD
E4
F7
E9
FC
EF
06
02
26
F1
F1
EB
E9
E6
30
1C
38
0F
03
F1
10
04
30
19
1F
FB
FC
05
E2
FE
18
F2
1C
F2
F5
0E
F2
05
1D
28
12
F0
F0
0F
0A
03
1A
1A
F3
08
13
EF
F5
1C
06
00
EE
12
1D
03
18
06
0A
0E
F0
EB
FA
0D
08
FF
06
24
0F
03
0A
0F
0E
FF
08
33
FC
00
0E
FB
FB
05
07
19
E8
E7
12
11
15
F7
0C
1A
F6
28
08
EB
F2
25
EE
01
03
EC
ED
FA
F0
F2
EF
F1
02
23
EF
01
41
FA
F4
F4
15
F5
F5
F9
28
DE
20
F6
C7
DE
21
E4
FE
EC
0D
2C
EE
24
10
F0
1D
12
0E
2B
06
F8
FD
01
08
EF
FD
0F
EB
ED
E1
DF
F1
E5
16
E3
08
FC
F6
F6
D8
F0
23
FC
2B
F5
FF
E7
F4
E9
29
09
2B
0C
FF
08
0B
ED
29
14
3C
F5
EB
18
F6
10
22
F9
17
23
02
0C
F6
FA
2F
FE
1E
EB
FD
03
F0
07
1C
09
FA
E1
0D
0F
18
03
FE
F0
EC
0B
10
02
14
06
EF
F7
EA
0B
05
FE
1F
06
0E
07
00
E1
01
01
07
05
09
F7
EF
15
F7
12
05
03
04
1D
04
10
12
06
05
00
08
18
D6
F2
FA
07
F8
12
07
FD
DD
00
04
FB
F8
09
F3
09
FB
F0
E8
09
27
F5
F8
06
01
02
0E
F6
1F
FA
29
F8
D6
01
22
F8
1D
E3
1A
39
0A
0D
19
F5
12
FB
1D
2A
03
F6
0C
F2
FD
EC
18
13
FE
1A
E8
DD
01
F8
30
01
F8
FE
E4
E7
FF
EB
23
FA
2C
F0
FC
E7
0A
F8
18
10
23
01
FA
E8
F1
FA
1D
0E
17
E7
E4
F5
F9
0C
17
0C
13
E8
E1
17
19
05
0B
0F
23
ED
FF
FE
E0
14
16
00
0D
1C
0B
F5
FB
18
EE
FF
FF
F3
18
0C
05
FA
F6
FE
FE
F8
F8
09
EF
F8
0E
F0
00
F8
0C
F8
F6
07
16
11
F8
EA
FF
FF
01
20
07
08
FD
1C
FC
06
ED
0D
08
15
F0
25
01
1B
00
02
FE
01
05
01
FD
F1
E5
0C
E4
E1
F0
FA
EE
0E
35
EE
15
EF
0A
F9
01
F5
1F
05
1F
0D
E1
F4
FF
F5
23
02
18
30
FC
F0
0D
04
0D
06
29
1D
F9
08
06
E5
13
FD
0D
26
EF
09
DC
F2
05
DF
0C
F6
F3
D9
F8
08
EF
EB
0F
F9
3A
03
FF
E0
F7
F0
15
12
41
0B
F1
04
04
E2
0E
0B
2C
03
EA
02
FB
E7
08
E9
22
F3
F2
1C
FA
F3
11
04
1F
F5
02
0F
1A
1F
24
0B
06
1F
F3
06
00
02
E8
F6
F4
E8
07
2E
FB
F8
10
09
F0
0E
FF
FE
1C
14
17
06
E2
F1
FA
01
11
13
12
29
F1
0F
1F
FA
FD
FD
02
07
0E
FB
0E
04
01
01
ED
FE
DE
FD
08
EF
F6
0A
FF
0F
E7
F2
0F
02
EA
10
F9
EC
FD
09
EA
1F
46
DD
E2
F7
08
F5
F7
E9
33
FB
2F
F6
B5
1D
15
EB
11
F7
2A
2E
08
1D
F4
FB
15
FA
22
34
FF
06
F6
FD
FA
F9
03
F5
F4
F4
D5
EA
01
08
22
F1
F2
06
D1
E5
0C
EF
12
03
08
02
F7
05
1B
07
39
34
21
E2
E3
0B
0C
F6
29
F7
24
0A
FC
FF
1A
FD
05
FF
FF
0E
0A
1A
09
FB
15
04
03
F7
FE
00
FC
FB
11
FA
1D
0E
06
ED
FC
23
D8
F2
04
E5
0F
16
29
FE
F5
EC
E2
0E
EB
09
1D
11
05
11
E4
29
12
02
12
19
0E
1A
EE
F9
05
09
F5
FD
05
04
E4
F1
17
01
F2
FE
0B
F4
0D
04
06
FE
FF
EC
E9
00
FF
03
03
FD
F1
15
FC
F3
FF
FE
09
EE
3C
01
EC
02
F0
F6
20
EB
16
07
32
F3
CE
F0
02
D4
11
E6
28
0E
E3
21
EE
CE
1E
D9
23
26
06
FA
F9
F1
01
E6
0B
07
DC
21
BC
E3
EF
F8
12
FC
E6
FE
F5
D4
15
0A
00
13
FC
EC
F3
D6
1A
E3
21
36
2A
03
E9
E3
FF
00
13
1C
0E
20
E5
F5
24
0B
20
14
13
F8
04
1B
2F
0A
15
00
F4
1A
11
0D
03
18
0F
18
04
1F
FB
F2
1F
15
03
FB
0B
17
FB
0B
1B
1F
F4
07
F9
F9
F8
F4
14
0F
F6
FE
DD
0B
FF
01
18
04
1B
0A
ED
E7
F9
16
02
01
00
F7
F1
07
F0
06
F8
0B
02
F3
FF
20
FD
01
04
F5
D9
F4
F4
F2
E8
FF
04
00
F0
E2
FE
ED
1B
EF
20
FA
FB
F4
02
18
07
FB
EF
E4
08
0D
E1
0E
25
C6
FD
0C
1C
0B
F0
01
1C
D4
11
F5
1B
09
FB
DA
13
E3
F9
10
14
F0
F0
FD
1F
CF
F4
E4
FB
0E
0A
11
ED
DC
FC
E6
F7
FC
13
E1
0B
E4
04
11
EE
21
14
E1
07
E4
FB
08
03
2B
27
F6
0D
02
1B
09
09
F8
14
19
0F
0B
01
10
09
12
03
F5
18
F3
FB
F5
02
0E
0D
00
07
FC
18
25
0B
F0
F9
E6
08
01
24
14
FA
ED
E5
1F
09
FE
08
EE
1A
1A
05
00
FF
0C
FE
F9
11
11
EA
FE
08
F9
F0
E4
01
0D
F1
00
0B
EA
19
EA
F3
F8
08
12
1C
1F
FB
EF
F0
F2
14
E1
03
FA
F9
DA
E9
FC
F3
FF
12
04
F7
FC
17
0F
FC
29
03
E5
F2
EE
1E
FA
04
ED
25
F4
E1
15
10
1E
EF
1C
04
DE
E5
08
21
FD
FD
EA
03
CA
DA
26
00
0A
FD
05
F0
D4
E1
1A
E4
F5
07
E7
FA
DF
D4
03
F0
10
15
0C
F4
ED
E3
FB
0F
1E
16
09
00
EC
EA
13
16
0B
01
FB
FF
00
FB
07
13
08
F4
E4
12
00
FB
FA
FC
08
EB
19
02
1C
E8
26
F3
10
09
0F
19
02
FB
EC
F7
E2
FB
FA
11
F3
0B
08
FF
D9
F8
12
18
06
07
22
FF
19
F5
0B
0A
13
F2
FA
02
21
EB
11
17
17
EC
E1
0E
F7
E8
D8
0E
01
F1
ED
ED
F0
09
F7
E7
FD
F0
F9
DB
EE
DC
FB
F8
0A
F5
0B
D4
D7
08
06
18
06
0C
13
FD
09
13
26
12
F4
EF
00
F5
28
18
FE
04
0E
21
1A
0A
1E
09
F0
0D
0F
EC
F3
17
22
00
EC
0E
01
E9
08
09
F2
F2
08
F0
0B
D9
09
14
F5
F6
04
19
F4
11
E9
F2
0D
20
17
0A
05
0C
04
01
FD
F4
FB
1B
0C
F2
0B
FF
FE
01
D8
FA
0E
F5
14
F9
01
04
F8
FA
02
E8
F9
F9
EA
F1
07
FF
1E
01
0B
F7
0A
F7
0C
FD
EC
F3
05
F8
DA
0B
15
F6
EE
F9
10
FA
FE
08
F0
E6
EC
05
FF
15
19
1F
11
FC
09
08
01
06
FE
04
08
FB
FB
08
F4
F6
28
10
F9
28
0B
F8
0D
01
00
FF
02
05
08
EA
E9
F4
F6
01
EA
DF
1F
FE
0A
F9
F7
0C
1B
06
ED
F6
F2
03
03
FD
04
F5
10
0A
0B
F4
F8
F1
E7
05
FE
E7
0B
F1
EC
F4
EC
06
EE
DE
05
1B
FE
13
F3
D9
EA
04
10
05
ED
15
02
0B
10
FA
02
05
0B
02
07
FC
F5
15
14
05
F7
0C
FE
F6
F4
FA
06
FC
13
DC
E4
09
FA
02
23
EC
06
11
13
F8
FA
27
28
0B
23
EC
F1
09
17
0F
13
FF
F2
FC
0A
F5
0D
03
26
01
0F
FE
F1
FB
E6
F0
02
F2
FF
02
11
FF
FD
1C
02
0B
F6
14
0C
0B
21
28
F0
11
05
06
ED
F9
0A
F2
EF
F8
F1
FE
0D
F9
F7
EA
00
08
DB
02
0F
FE
04
EF
20
16
01
E8
ED
E4
22
F6
19
00
04
01
13
EB
0D
EC
01
08
05
0C
0E
FE
02
12
F7
27
F9
FD
18
FE
24
F7
13
ED
1E
09
FF
D8
F4
12
F8
04
0C
1C
11
FD
17
1D
01
13
EE
11
F3
F8
06
F6
16
FE
15
16
DC
1F
00
25
EE
FF
F7
F6
02
DD
15
F1
14
08
E8
E5
21
EA
F0
1A
07
EA
08
EA
E4
1E
00
13
17
EC
11
D6
11
18
17
04
15
03
3A
D6
02
07
04
E6
E5
FE
0E
FF
ED
FC
FB
FF
1C
06
0A
FB
F9
EA
1A
21
F5
04
06
0A
E3
16
EA
04
E2
F9
F9
E6
FB
0F
FC
06
FB
10
07
07
13
07
FC
16
EF
07
DC
12
1F
08
F4
E9
14
06
F7
F1
0C
01
0C
E6
04
F3
F2
E5
F3
EF
1D
F6
20
07
FE
F4
05
EE
10
FD
0E
0B
02
0D
D8
07
FB
26
0A
1C
21
06
1F
F4
06
37
18
FA
16
1E
24
FB
F0
12
F9
02
09
17
16
F3
F9
17
F2
02
0A
2D
E7
E3
25
F0
F9
0F
DD
15
E6
04
FC
F1
17
0A
EA
24
07
F1
11
13
29
F4
C5
FB
07
EF
13
0B
E1
F1
EB
F8
1B
09
08
1F
15
F2
05
02
DD
09
0F
16
10
01
30
F2
E0
27
FE
F1
0E
0E
07
E6
07
0B
18
FE
0F
01
07
F4
07
10
E7
FB
F3
F7
0B
F9
15
18
25
0C
14
02
08
0A
0F
10
EC
EE
1A
03
14
0F
FA
25
FF
18
0D
0B
EA
1F
28
10
0C
E7
EE
F7
FA
03
15
0C
1D
01
00
12
EE
01
F1
F8
0B
F3
FD
04
F8
02
1E
0E
F3
02
10
FD
07
0B
09
03
10
3E
08
0E
0C
F4
E7
FD
1C
27
1A
ED
E1
08
DC
D9
F1
1E
07
12
F1
10
FB
C8
08
0F
03
1D
DC
23
04
F9
0A
FF
08
0E
C9
39
0A
01
07
EC
E0
05
E8
14
D8
E1
FA
D6
F8
ED
DB
FF
1D
F5
17
0F
1C
DC
ED
FF
FF
04
13
F5
E7
D2
12
DB
E1
13
11
23
0E
F9
31
DC
EF
07
0A
20
F2
F9
13
FF
1C
2A
DF
DB
E7
11
F2
FD
FB
28
00
15
03
02
20
07
F7
19
13
13
F6
09
FE
FD
20
14
F5
F5
FC
14
0E
17
FE
15
04
F9
F6
1D
F6
1B
E4
EE
FD
00
E9
EE
CE
0F
20
05
02
0D
06
05
F8
EF
DF
16
17
E6
F1
10
F3
06
04
DB
FB
E7
F8
02
11
FF
0D
0A
FA
27
0A
FC
E8
11
17
F0
0D
0D
EE
DF
DD
F1
15
D6
F7
00
EF
2E
E6
24
FD
D5
04
F0
08
08
ED
22
07
E1
09
D0
0B
18
E6
3F
0A
E5
E2
F9
08
02
D6
13
15
BD
00
0E
F8
E2
CA
EC
0E
E6
EF
15
11
CB
DF
F9
03
22
10
FB
F9
E5
08
E1
11
10
FC
FA
00
F8
30
E5
08
14
E8
12
E2
04
19
0B
FA
33
F3
EC
FE
F8
25
F8
21
28
EF
00
DE
FF
2B
03
FC
10
0C
CF
FD
19
0A
0C
F2
F7
0C
FD
02
1C
DF
26
0D
F0
0B
CE
15
FB
EC
27
F6
F9
E5
E2
FB
FD
D8
28
EC
E9
F2
CA
09
02
06
0C
FA
05
01
D5
0A
02
FB
04
17
DD
FE
EB
F1
09
10
12
FF
00
E0
26
F7
ED
F4
00
F2
FA
07
02
F5
06
E8
03
FD
DC
F2
C2
FF
0B
D6
25
04
E9
F0
D9
08
09
C5
23
12
F6
13
11
F3
18
F0
34
FE
FE
ED
EA
02
17
DC
1B
1B
EA
FE
EA
FE
F2
C4
FD
04
E9
0D
0D
09
CA
D4
E1
04
1E
FF
0F
EF
D6
0F
D5
F8
26
D6
33
E8
F5
3B
F1
E8
39
E8
08
E5
01
02
04
F6
19
0A
D0
EB
0B
15
F7
0E
23
F6
F4
D8
F4
17
23
25
14
01
D7
FD
F9
1F
1B
11
0A
18
F5
F5
0F
E0
2E
01
E5
DB
E2
F2
14
FA
2A
00
E2
EA
FD
0E
FC
C1
35
08
F6
F9
EC
00
06
00
0B
F6
01
FE
EA
0B
08
05
E4
EA
D7
FD
EE
F3
0C
0C
0D
02
FD
EE
17
10
13
FD
07
03
F8
0C
D4
ED
FE
07
F4
EE
F4
03
C2
18
2C
D1
33
D8
DB
FA
ED
10
1C
E3
37
0A
EA
FE
F6
EF
20
ED
32
F7
F5
F3
CA
FD
0A
CF
0D
10
DE
07
18
10
F0
D6
0C
04
EB
1A
F9
08
C4
CB
E4
0B
19
FC
29
F6
EC
07
F3
ED
2B
E9
FA
02
EC
2B
F0
F2
2D
E8
ED
00
12
13
ED
1A
3D
F0
05
04
FC
13
10
01
40
F2
06
02
F9
22
24
FF
18
00
EB
E8
14
F9
25
E0
FF
03
E5
FD
08
EA
2E
0B
05
E7
DE
E4
F5
EA
3A
F4
F4
E7
ED
EC
F8
EE
30
0A
DB
05
F7
16
FF
F7
FA
1F
EF
E4
CE
F8
13
04
F9
01
E1
03
F9
F9
08
04
FA
E4
E7
F7
28
FD
FD
00
FC
FB
EF
0A
EC
0C
0A
D2
05
FB
CD
FB
9D
EA
1C
E5
25
E8
EA
0B
F0
F3
0D
AB
49
0E
EB
00
E2
03
29
E0
3D
06
F7
F8
CF
0C
1A
D6
1F
EF
FD
FF
EF
0C
DB
E0
20
06
DF
1A
E7
FC
B2
D1
DF
13
07
1F
0C
F7
DE
0A
DB
DF
1A
F5
29
0D
EB
2C
CF
0E
26
FE
EF
04
F5
14
09
13
34
FF
FE
0E
06
0E
10
F9
2A
0B
E6
FE
F1
1A
36
29
29
05
05
D8
14
12
26
0B
18
FF
D7
DF
0F
ED
31
F7
FC
EC
0B
EF
0C
D2
30
F9
04
FE
EF
E4
FB
D1
32
E5
EE
F0
0C
E6
13
ED
1E
0B
E4
E0
FA
F4
14
F4
18
F7
D9
F6
ED
EA
FC
06
FC
F5
ED
EB
05
03
1B
0B
FF
0B
EF
01
F1
16
05
00
EE
0A
DB
10
B4
14
0F
E1
1C
FD
F0
F8
C3
11
17
BA
47
15
E6
01
EA
F1
0C
08
4A
15
F0
F7
EA
00
F5
D4
F1
FF
E0
0C
F4
17
D8
EA
03
FF
D5
18
FB
07
C7
C9
DD
F3
15
0D
22
EA
DB
0A
D6
09
1D
E5
2D
04
FC
35
C6
0E
33
F1
D7
EA
01
1B
0E
01
2A
FF
EF
F1
F7
0F
FF
00
3B
E8
0A
FF
F4
0D
1F
04
17
F7
DF
EC
12
26
36
07
0C
06
E7
D6
13
E3
30
09
00
F5
E0
F3
11
E2
38
0D
F6
05
EC
05
00
E5
24
EF
FE
F8
00
D8
18
F1
26
0B
F2
FC
E0
E4
06
0B
1A
05
C6
F6
E8
DE
FE
0C
03
09
FE
E2
18
1B
FB
F7
06
F1
FE
F6
EF
1B
07
0D
01
0A
ED
F0
AD
1A
17
D6
37
FD
D8
EC
CA
F1
15
C4
33
F1
ED
F0
E9
15
0D
F2
36
DE
FD
0E
FB
10
0F
F6
F9
0C
EA
F0
E5
0B
EE
C1
10
F4
E8
1F
EE
00
D0
E4
E7
13
07
27
12
EA
EA
0F
EA
F4
14
EE
FE
09
FB
31
DB
1B
1C
E7
EF
F5
F7
1A
06
01
2C
ED
FB
04
FA
07
19
EC
2B
0D
FC
D8
FC
0F
1F
FC
2D
F3
C9
DA
0A
FE
29
00
FA
09
E8
F6
21
F3
4A
1A
F8
00
E7
F0
21
01
22
F3
00
E9
06
E3
15
D7
3D
0C
07
F1
F3
EC
17
DF
29
1B
FD
FE
EB
ED
17
F6
23
0A
EA
EE
F9
F3
0F
0C
F8
F5
ED
E8
1C
14
07
17
0B
0D
ED
F7
ED
10
07
D5
F2
09
D6
F7
B5
F6
19
C9
25
15
E8
F5
C4
F9
2A
B0
39
0E
02
11
F0
F7
1D
EB
39
10
02
15
E0
08
01
EE
1C
1E
08
04
F2
02
E8
DA
FA
FB
E0
FE
05
02
D3
CA
F4
EC
10
16
05
0D
D7
09
DC
F6
1E
F8
10
ED
F7
27
F5
08
28
EE
EC
E0
F8
17
FB
23
2E
F1
FA
F5
FC
1A
10
F7
32
FB
FB
E8
F1
03
24
EB
25
F9
CA
F1
FE
01
2E
07
18
03
E5
EA
10
FA
3B
07
0F
11
04
F7
1D
F1
24
D9
08
EF
02
DD
07
C8
2C
0D
06
EC
17
DA
21
DF
34
D9
FB
F2
F4
EC
0E
0A
0F
0F
DB
F0
FB
E6
0F
00
04
F9
01
05
05
FE
08
F3
0E
F2
FB
01
FD
18
1D
F6
EE
06
CF
FC
AE
27
21
D2
33
03
E0
E0
C9
FB
3A
BD
4D
04
E8
F5
E6
EB
19
F2
4B
1D
FC
F7
D9
FF
FE
EA
0F
04
0E
00
ED
19
E9
E9
FF
11
EF
14
01
17
BC
B5
EF
0C
22
27
0F
01
D4
03
CE
01
25
FF
F9
F0
0A
1C
E5
0F
1C
EE
F4
F1
F4
0C
00
08
1C
F4
D5
F1
FC
1F
11
00
18
03
F7
E4
FF
07
09
1A
18
FF
EA
EC
FD
13
2B
F8
0C
FA
DF
F6
11
DA
2A
DC
FC
FF
FF
EC
12
E1
37
FD
EB
FE
EA
D1
12
FA
28
1A
0D
F0
F7
E0
0C
EB
35
14
EB
00
EB
E7
1B
FC
09
00
F2
04
F9
E5
1A
0E
08
12
F8
FE
09
0F
0D
EA
03
E1
FE
F2
EC
0D
02
DB
04
1D
D4
01
CA
13
29
CA
28
04
E2
F1
DB
0B
2C
CD
44
00
E7
F4
D0
12
15
FF
42
11
05
FD
D9
11
1C
F4
15
EC
F2
24
D6
1D
EC
DA
F5
EC
E5
22
F2
0B
BD
D0
EB
05
07
1B
01
ED
F5
02
CF
08
15
FD
1C
E5
04
19
C7
25
22
F3
DE
FB
FB
20
F6
EB
25
FE
F5
08
F5
17
0E
04
1C
F9
EE
EC
E1
06
12
FF
2A
13
ED
FE
05
18
25
20
09
13
EA
D7
05
06
33
25
FF
0A
F0
EA
17
E1
30
FA
0D
0A
04
00
0E
E9
16
20
0D
02
E8
ED
07
E8
3C
F1
D9
FA
E1
ED
18
FC
F0
09
E3
05
FE
D1
0B
0E
F5
25
FD
FB
30
1E
08
FC
0C
21
EA
FC
E5
1E
16
F5
F4
FC
F0
EA
C4
21
27
E9
2B
DB
DB
EC
E5
FE
37
E2
46
25
FA
EC
E4
F3
19
F2
4C
06
00
FB
EB
10
10
F7
2A
F8
E9
18
EE
21
E8
D5
F4
0A
ED
24
FE
F9
B2
BC
F3
1D
00
2F
07
08
E1
F1
ED
27
27
FE
22
FD
02
20
D8
05
25
EC
F1
FF
0A
0F
E6
FE
46
FD
E1
CA
F7
22
03
08
21
F5
0F
F7
FB
0C
FB
14
2D
03
E5
E4
09
0B
1A
E6
01
28
E9
D6
0B
F7
2C
FB
11
EE
0B
ED
17
F0
3C
F5
08
FA
F8
CD
17
FA
39
EA
11
F5
ED
EE
0A
EC
41
D6
E7
F9
FA
C8
15
F7
08
0E
E3
08
E8
EC
FD
FE
F1
00
E9
F4
09
26
02
16
F0
01
EF
01
FF
03
22
DB
FC
F5
DE
E5
C4
01
28
D4
38
08
D0
EC
D5
04
2F
CE
4E
EB
F9
E7
DF
F0
1B
F5
42
F1
F6
09
D5
0A
0D
08
04
05
E2
0E
D7
19
DB
DA
E1
25
DE
15
0E
14
BD
B0
E3
E5
24
1E
F8
0D
D8
F7
F2
FF
18
F5
07
F0
02
25
D5
1E
2E
DF
E7
05
EF
11
E8
E7
47
F4
E1
DE
09
36
1A
11
11
F5
12
E5
E7
18
01
17
2A
03
05
EA
09
0B
12
04
17
F0
EE
D7
11
ED
3C
17
16
FF
02
DC
21
F3
2E
E5
13
EF
EC
E2
10
D0
2E
EE
FF
01
E0
E5
0B
DA
1F
F8
F6
FB
07
DB
05
F6
0C
F3
F0
10
F9
F5
F2
0D
10
F7
F6
FF
2B
0D
06
1E
F3
0C
E9
01
F2
23
FE
E9
DD
12
DD
F7
BB
22
1B
D4
38
29
D4
CF
F5
F9
27
DD
47
00
F2
E5
09
FC
0E
F9
34
0A
02
FD
EC
25
1D
03
15
09
F1
1B
D0
17
DA
DA
E7
07
E3
15
F1
02
B9
CE
E6
0C
10
31
FE
F7
D9
FA
ED
ED
33
F4
19
E7
FE
3F
E5
06
2E
E6
F2
DC
F5
18
E6
01
2F
EE
E7
E4
FE
2C
03
F7
20
05
07
E2
06
1E
05
ED
2F
03
EA
F8
0E
0C
1F
FF
20
F4
E8
E1
1C
EC
22
1E
05
FD
F5
CA
30
E9
30
E4
14
FF
F2
DC
17
F8
26
E1
0B
01
11
C2
02
F1
36
10
02
05
ED
F1
15
FA
17
F8
F7
F1
E8
D3
FD
08
FB
27
F5
F5
13
06
0B
F0
01
F9
D7
0E
EC
12
FE
FD
EE
25
D8
F1
B2
09
1C
BF
34
EA
C8
EA
DB
0E
24
DE
47
FE
DC
E0
F3
06
20
FE
2B
F6
18
14
CD
19
16
FE
1A
15
F8
11
F4
22
D7
CC
DD
15
DC
14
F9
02
BB
CA
E3
F3
0D
1E
2A
0C
E4
05
E0
18
2A
07
20
ED
F6
17
CF
F4
2A
D6
FB
CE
03
37
E2
FD
1D
FB
E5
E0
05
29
EF
16
23
F7
01
F4
0C
14
FF
EE
31
F9
12
F9
14
F6
0C
F6
0B
0F
D8
DC
FE
0F
37
FA
01
09
04
D1
0B
0C
29
F3
0A
F9
ED
C2
18
F4
25
18
0F
08
F7
ED
1F
F7
4F
0E
F0
E4
00
EB
FA
1A
0C
03
E9
FC
F0
CC
06
05
F2
12
04
E2
16
0A
0A
F3
0B
F3
DC
FD
10
FC
0E
E2
E0
FE
F0
FF
B1
06
1B
E4
30
13
C6
C3
FA
0C
1E
D9
57
11
E1
D6
FA
EE
1D
F7
37
EA
F0
05
EF
24
1E
F1
10
E8
EB
19
D1
18
F5
C8
F8
EC
F5
1F
F2
FF
B3
D2
E6
0E
06
2E
07
17
E0
F5
02
F9
20
07
16
08
E8
1D
D3
08
34
DA
F2
CE
FB
1F
E1
00
2D
DB
DF
CC
05
FB
F7
00
33
F9
0B
01
13
28
F8
07
24
F8
0F
03
0D
E9
06
FE
18
F9
ED
F5
0C
E0
2C
0E
F9
06
FB
CE
27
E8
29
19
F9
01
0E
C8
25
ED
30
EB
01
FE
10
DC
1E
00
1E
10
F9
00
FC
C8
0E
04
13
04
F0
02
FE
D8
0F
1B
F7
E1
F8
DE
12
E2
EF
0A
02
E0
DD
F1
0E
2A
25
15
EB
02
F4
F0
BF
FC
27
DC
42
0F
E9
BF
E8
20
33
C9
3F
10
EC
F3
03
02
2C
04
38
06
0A
F9
E5
1C
3F
0F
0C
25
E2
06
E6
03
F4
D7
FE
F6
E7
2F
FA
03
B6
CB
F1
11
0A
2C
FC
1E
E0
FF
C2
DD
1D
F3
10
FA
07
1E
F6
20
07
E6
F1
0A
E8
27
F1
F5
24
ED
FD
EE
13
15
E9
E2
22
E5
F9
DD
1D
32
04
FA
25
00
EE
FD
0B
0E
23
FA
0F
01
F8
F0
15
E4
21
F7
10
F9
E7
C3
19
E1
34
FF
ED
F4
EF
D7
21
01
31
EE
F7
F2
F3
E5
0A
EE
2E
1E
F2
0C
07
C2
08
0A
14
14
00
FC
F9
D6
FB
F8
E5
F1
FA
E0
15
21
EF
06
F9
00
F5
F4
0B
0B
18
02
F5
04
DB
FD
CC
32
1D
C9
3B
12
D9
AF
CF
0F
26
DE
35
E4
DB
D3
22
11
2E
FB
36
FA
FD
02
EB
0F
37
0B
14
1D
DD
18
E0
10
E0
DF
14
F9
F0
19
F7
FB
C4
E5
E7
11
01
31
1A
F7
D8
F1
E9
F3
21
F9
FE
E4
E9
02
D0
06
14
D7
FC
EC
06
10
FC
F0
1C
E7
EC
E3
03
21
E4
04
12
F0
F3
ED
16
36
02
FD
13
11
DF
EB
19
07
10
0C
F9
08
F8
F4
1D
FD
1D
16
F4
0A
08
EC
0C
09
3D
E0
0B
EE
10
D1
1E
15
43
EB
FA
F3
05
C7
F2
D9
25
20
EE
E9
FD
CE
16
0C
27
06
0A
06
F9
D6
0B
05
E8
02
E8
D2
10
01
F2
15
09
04
D3
E2
FE
F0
32
1B
D9
F5
EA
CC
CB
10
1C
F1
3B
02
D4
BF
CA
FE
12
DB
3B
F8
D5
E7
13
10
1A
F4
38
09
08
EE
F4
F4
3C
F7
15
04
E4
FA
F4
04
EE
F4
07
F8
E9
3B
E2
1F
D5
ED
E6
FD
18
49
21
06
D8
DE
FA
F0
1B
FE
DE
08
F7
14
C7
0F
1D
CF
00
EA
FF
1B
D5
08
0D
D9
F1
F4
16
23
D8
0C
29
DC
F1
F2
21
49
FC
E2
08
01
F0
F8
17
F9
0F
F5
FA
1A
EF
EC
09
EB
1A
0C
17
09
11
E9
1A
F7
29
F9
FD
07
01
DD
0A
EC
22
15
03
FD
E2
D2
15
EC
4D
D7
FC
F6
0B
CC
0E
04
03
F7
FB
FB
0D
EB
19
07
F4
F4
E5
DE
22
07
EA
F7
EB
23
C8
EE
03
04
0F
19
C3
F8
06
D0
F7
FE
0E
E7
0A
02
B0
B8
00
FB
18
0F
22
F7
E9
DC
09
15
23
0D
22
13
E2
ED
EB
18
20
0B
12
FC
02
F1
DB
0E
E1
04
DB
0F
F3
1A
06
EF
DB
DC
DD
FB
00
2A
20
FD
C1
E3
EF
01
14
F2
14
00
0F
28
D9
FF
F4
DC
09
FA
1C
08
D1
03
0A
F4
E4
DB
20
30
EA
06
11
E2
26
F7
16
22
F9
07
02
F5
F6
FB
1D
0C
16
0A
07
F9
11
DE
20
08
19
04
0A
0B
0C
F7
F4
FC
41
F1
F8
16
09
DC
0E
1A
2B
1F
E7
FE
01
E0
FD
E2
34
EC
F3
F5
03
EC
0B
FB
04
F6
DD
FD
06
14
0D
FA
FC
F1
0A
CA
01
EC
0E
0E
EC
D7
EE
D4
F2
FE
16
FA
BD
0D
EF
CB
C4
EE
ED
13
10
19
F8
B1
F1
E3
00
F3
0C
F6
DE
C6
15
27
14
29
15
F6
F4
F5
E7
00
0B
2F
0C
EF
03
0F
FD
08
F3
F9
F9
05
0D
34
15
1B
C8
D1
F2
1B
0A
22
12
11
E9
F4
E1
2A
20
03
F2
F8
14
0B
D0
F4
0E
BF
C6
D8
04
05
F8
F4
04
C9
EA
FD
F7
FA
E3
1B
11
DE
0C
11
25
29
E5
02
EF
EF
02
FA
1A
21
19
09
08
05
04
E5
FA
ED
2D
26
FA
17
F6
E8
12
12
31
FC
0D
00
F7
EB
19
F1
2A
06
14
EC
08
D3
21
07
32
E3
02
0B
FB
D8
27
07
05
E6
F5
F5
0A
F7
2C
2A
D8
1B
DA
F7
EA
F6
F9
0E
F8
0C
05
C7
D6
06
12
E3
E1
E1
D8
DB
C6
F8
E6
FA
0C
07
F8
E7
E1
0F
00
F3
03
F0
DE
CC
F5
FC
EF
1E
16
13
FB
F4
03
E9
FC
FA
15
E8
15
09
F1
0D
DB
0A
E8
09
F5
1A
04
F8
D8
D4
04
EE
25
29
09
FE
F3
F5
D4
0A
15
19
F5
12
FE
04
E7
01
EB
DE
BE
FE
09
12
DF
13
E0
EF
C7
FF
03
08
FE
F2
19
E0
E4
0C
22
1E
05
F7
16
F2
F9
06
17
F6
0C
1E
23
08
FE
DC
FD
17
11
DF
F5
0F
01
03
08
EE
1B
02
0B
1B
0C
16
1A
00
0F
26
14
F8
F4
F3
19
16
22
0A
D0
F9
F1
05
2B
1E
1E
EF
F5
06
05
E7
3F
2A
06
F0
15
14
13
20
1B
DE
10
05
33
F8
08
04
17
0D
0F
F6
01
ED
28
25
1C
13
FB
EA
FB
F3
1C
F9
1F
F0
FB
17
F8
FF
10
F7
0B
24
04
00
0D
0C
F7
0A
16
13
F8
05
0A
F1
F5
EE
F8
14
0E
ED
FE
1B
FE
17
13
10
12
21
1C
FA
E5
0B
08
0C
10
1B
03
EF
0D
05
0A
F0
04
11
15
00
FD
EF
02
18
F4
09
FA
F6
02
F7
FD
13
EF
13
F7
F9
17
0F
FA
F8
15
FF
04
EF
F0
15
FA
FE
F0
F4
ED
06
1C
02
FB
F7
05
FB
0C
EF
F4
F0
F6
EC
17
F3
F5
EF
02
FD
E5
21
0C
F1
1E
08
F1
0B
F7
09
1D
F2
F9
F2
FB
0E
ED
F8
FA
DD
F0
FD
DB
1A
F4
EF
0C
06
0F
DF
E2
06
06
EE
FA
0D
17
FC
F9
15
1A
E4
FB
0C
1A
FC
1B
04
07
20
FF
09
0F
F2
26
19
1F
0D
02
16
03
03
FD
05
01
1B
0A
11
FA
21
13
FB
0C
05
F3
DD
E4
DC
22
1B
15
14
0E
E8
00
F7
F8
F4
0B
0B
FD
21
E3
0F
E1
22
01
21
0B
1F
09
10
E2
18
11
0E
ED
01
14
12
FD
11
F6
E9
20
E1
F5
1B
27
22
FA
F7
FE
13
F6
DC
06
0D
F4
05
20
0D
0B
E4
15
28
0C
00
F5
07
0C
0A
06
0E
F3
FB
FE
04
08
F4
EF
03
E4
EB
06
EE
ED
DB
EB
1D
F4
FA
0C
FC
FE
11
F7
F8
F5
EF
E7
FC
1B
DC
17
FD
FE
00
EA
F4
F1
F7
0F
21
04
FD
0D
0C
0A
14
FD
19
09
01
FD
E2
0C
0C
E0
25
FB
FF
0D
18
F6
0B
19
12
10
09
0B
06
12
1C
10
03
13
0A
05
0F
09
01
21
E4
01
26
F9
F4
05
19
00
FF
0B
FF
16
09
E7
EE
ED
F5
0F
2F
EE
19
03
0A
10
EE
F7
2E
F4
08
F7
EE
07
00
FC
0E
F0
12
08
05
ED
11
FC
FB
F7
25
F1
05
0C
F9
FA
03
0C
16
04
25
F8
E7
FC
11
0D
19
D8
FA
0B
06
FD
EF
13
F6
FF
0E
F9
04
F1
DC
FB
E1
F6
0B
15
07
F7
02
0E
F1
FD
E3
EB
07
F1
EF
03
FE
F8
07
10
F7
00
F9
F2
0E
F9
F2
1D
F5
D8
FF
E6
18
2A
1B
03
16
FE
F4
F5
FD
04
01
FE
FE
07
FC
0E
FA
15
EB
02
15
EA
FD
04
E5
FE
ED
FE
1A
09
2A
1B
DF
FB
F8
F1
04
1A
34
07
F9
0D
F5
EF
EC
10
1A
0B
0F
13
FE
10
22
1E
02
E6
F7
11
FA
11
FC
1B
21
12
F4
18
16
29
E4
0C
2E
12
07
20
F6
1D
F4
12
33
F4
EE
FE
05
06
FB
13
0C
0E
F0
00
F8
EE
F3
17
00
F7
FB
FC
0F
F4
D5
0A
ED
EB
F5
E9
EF
D8
F0
F8
E2
19
F7
F8
0A
0B
09
FA
E7
0F
FC
E8
02
00
1A
FE
FD
1B
E6
EF
0F
E3
10
F1
E2
0B
0E
06
29
00
01
F3
00
11
04
F2
F7
EA
F8
E0
09
0E
13
F4
00
09
FA
F5
0C
FF
18
08
0D
FA
DE
FA
03
F2
F3
1B
EB
06
EA
FB
FF
0D
F5
10
17
F8
E8
F1
F1
F5
00
03
0A
09
0A
F3
FB
33
26
E7
17
E3
FA
1F
24
FC
07
02
E2
EB
08
2C
F8
02
1F
04
EB
0B
04
17
F7
FF
1C
ED
00
3F
D5
17
1D
FE
03
F1
1C
17
EC
0E
54
EE
F5
25
FA
08
EE
13
32
0E
D8
09
0F
EE
E5
06
10
F4
FB
E4
FB
09
DE
13
FF
02
F9
EC
0A
00
E9
FD
DC
06
04
DB
06
01
F8
09
E2
0C
14
DA
FE
20
E3
09
DA
14
12
E1
05
FF
F3
00
08
FB
F1
FD
F3
04
FA
08
FF
01
1D
0B
FD
0A
F4
FB
FC
F9
19
ED
FC
F2
06
E7
02
F6
0C
FC
FB
01
0C
EB
1B
FF
FF
08
1D
F7
E8
FC
F4
0C
FA
F1
EE
ED
DD
FC
06
05
DC
1A
FC
F9
07
DF
1B
14
0C
FC
01
16
E1
ED
09
34
EE
E4
1C
1B
FC
3B
03
15
F2
EB
14
00
DD
24
04
F1
ED
FD
E6
32
F9
24
04
0E
22
03
14
2F
F5
1A
37
F4
18
03
0F
4B
E6
0D
5C
F7
1F
1C
E6
23
0C
15
4E
E0
05
1C
EC
FF
04
13
15
EE
07
EC
0C
DD
F8
0E
03
0C
1F
E8
0E
F5
EC
FC
E2
E8
FB
F6
00
E5
EA
F3
D3
F5
FD
D2
FD
1B
ED
09
D1
23
FA
D4
F7
E9
F0
0A
D6
14
03
E6
10
F4
18
FE
E1
0B
25
F5
FC
E9
F2
E9
F4
0D
F5
00
F9
17
02
FD
03
04
F8
F5
14
E3
D3
EB
E7
09
F3
14
17
EE
E6
F6
FF
11
26
F4
F7
02
FA
05
08
16
FF
0D
F7
F1
F7
E6
FB
04
04
07
02
04
09
F5
FC
5F
D6
E7
2A
23
F4
1B
06
01
EA
E7
05
25
E3
25
07
EA
FB
FB
09
25
DE
37
04
07
E5
FF
14
2F
0A
30
23
04
F0
23
FE
1C
D2
2B
55
01
E5
26
FE
14
ED
24
46
E6
EE
0F
FD
ED
EF
0E
1E
05
0A
12
FF
E4
F5
0C
ED
FD
EA
0D
13
1A
E5
FC
C2
EF
0A
E2
0F
FE
FF
0C
F0
FF
DF
EA
00
F6
E1
04
D8
26
20
DC
F4
19
06
E8
D2
10
04
F1
02
0C
06
F0
F0
04
1F
F4
F5
ED
F1
FA
F1
04
02
F8
FB
04
F1
E5
E4
0A
F0
FE
EF
1C
E3
EB
F3
00
17
01
13
19
DA
F8
06
DE
11
EA
F7
F4
EF
03
04
0B
E8
08
0E
E2
EE
DE
06
0E
29
FB
FA
00
02
EC
1B
52
FF
DE
3A
2F
13
30
E9
FF
F6
E7
15
1D
D9
3C
0F
E6
14
EE
13
1F
E7
33
08
FC
06
0C
08
19
D9
2B
1F
07
10
24
16
29
FC
31
4D
F0
D9
3F
F2
20
E2
25
49
E5
EC
0A
F5
F2
D9
22
1F
ED
22
02
0A
16
08
F7
FB
0E
FB
FB
1D
F3
1C
F6
E1
CF
19
F4
0F
EE
F9
04
D1
F9
E2
DA
F1
24
F5
07
DF
1D
F9
DB
18
0B
EA
08
CA
F2
FA
EC
04
0E
17
ED
F1
06
15
FC
FD
08
FA
E3
E4
0A
FC
EE
08
F5
09
EF
EE
06
EF
E1
19
07
E8
E6
DF
EA
0D
F1
16
EE
ED
F8
09
FA
FB
0C
F8
EB
DA
00
FC
04
FE
F5
FF
F6
E1
0C
0A
13
0D
F6
F5
15
07
CA
EC
50
0E
D0
26
4C
F8
23
EB
FF
08
E3
11
2C
F9
2A
F1
E9
0B
E9
0F
15
EC
33
11
0C
0D
01
01
32
E3
41
27
11
02
2E
07
09
E3
22
4D
F1
05
27
03
25
F5
2C
3B
F4
00
16
0B
EC
FE
17
0D
FF
E7
FE
24
06
EE
F0
E9
FA
1C
F2
19
08
FA
FF
D2
01
02
EA
05
F2
F4
0B
D2
F9
0D
CD
0D
12
F2
0E
E1
1F
00
E7
14
04
FF
09
DB
FC
D9
06
F9
EB
01
EF
FA
FB
F5
FC
FB
14
E2
F9
F5
02
FD
FC
01
F7
F3
00
EC
E7
F2
00
F1
11
EC
F0
E9
11
0A
07
04
01
EE
FB
F2
14
01
12
F0
F2
F1
F0
FB
08
03
F8
01
E8
F9
17
26
0F
EA
F7
F8
1E
FE
F2
F8
3F
00
D4
1C
53
FE
1E
0F
EF
DD
ED
10
19
E7
34
0E
DE
DF
FA
0E
29
E3
16
09
06
12
EB
F9
32
E0
1A
1D
F3
ED
10
07
31
F2
12
52
EB
F7
1E
F7
1A
DC
3E
33
E3
FB
1F
0B
08
FE
13
1A
F4
F8
FE
08
FC
E9
FE
EB
E6
F6
02
18
02
E8
FB
F3
01
08
D7
13
04
E6
02
E6
D7
01
D4
F0
0E
05
18
E5
08
E5
D2
16
12
FE
0E
D3
FC
1F
E9
F8
11
06
F3
D5
F8
FF
F0
04
0A
D9
F8
FD
F5
12
FF
06
1B
E6
FE
FE
DE
EE
F6
18
F1
F8
06
F3
02
EA
04
14
FC
EE
E6
09
F9
EE
E3
E7
FC
D9
EF
FC
0A
0C
03
F6
E2
11
0F
19
18
10
EF
E5
22
F5
E5
E9
4B
F7
DB
0C
4F
DE
22
16
09
16
D1
F8
19
E0
24
FE
B8
FB
E5
12
1C
E3
22
09
05
29
F7
10
31
E1
33
3F
FD
ED
04
03
2E
ED
30
36
EE
16
2F
F5
1B
DC
3A
56
E5
EF
26
FF
03
D7
31
16
EF
F1
08
13
01
02
03
F1
F2
08
FF
05
12
F2
EE
DA
ED
EC
EA
F7
0C
F1
09
E6
E6
00
CC
10
0D
0D
20
F4
18
23
EC
F9
00
E4
07
D4
FB
16
D2
01
E6
01
06
F0
FE
03
F3
09
01
0D
05
F7
D4
02
FB
FB
08
F0
1F
F3
FE
EB
02
0E
1B
0F
04
F5
F0
1F
14
F7
06
DC
F9
E9
01
FF
08
F2
06
FF
FF
F3
05
1A
FC
FA
EB
FB
FA
12
20
F6
E0
E8
1C
FA
D6
0D
2C
04
E1
09
3B
D3
2A
EE
F7
ED
F1
F7
0D
F0
32
0F
C9
0E
00
10
24
FB
31
F0
F4
DD
F5
04
25
C7
27
25
16
11
2E
09
30
D1
2C
34
E6
F0
21
F5
21
C8
40
39
DE
F0
12
F3
10
E8
1F
18
FA
EA
07
11
DF
ED
FA
F0
07
EF
F3
05
10
E5
F3
E9
E9
E8
D6
01
F9
05
0B
EE
F9
12
E3
05
FD
E6
16
E2
1B
12
C5
00
FD
02
04
D2
FF
EC
F6
FD
00
E4
F7
F3
EB
FA
F8
0D
03
FA
FE
E4
DB
E3
06
FF
F4
F2
1B
F1
F7
02
01
04
13
E5
0C
05
F7
0A
03
03
0B
03
EE
F7
21
20
FF
F3
09
E5
FF
EC
17
00
06
14
EB
F2
18
16
1F
EC
EE
E1
1E
03
FA
FE
28
03
C9
0C
3F
D8
30
16
03
F8
E9
FB
28
E1
36
0A
DF
E5
EB
08
1C
CD
29
F2
FC
0A
ED
01
29
F1
20
13
04
EC
17
0A
35
C3
1A
46
E0
D7
3C
09
28
D1
22
20
D5
FA
28
FA
FF
EA
1D
23
E0
07
07
0F
F1
F1
08
F0
F8
FF
05
1B
05
FA
F0
FB
E3
E4
CC
1A
F9
09
06
EE
F4
03
D0
14
F4
FF
1D
E8
11
F4
D1
F4
04
0B
FB
DC
0A
0C
EB
ED
06
F3
04
DD
DF
F9
EA
FC
F5
F2
FB
EA
E3
03
EE
0E
FF
DB
1E
04
F7
1A
04
0C
0D
DA
04
E9
FF
04
00
0C
F9
E4
FB
F6
14
DE
1B
00
0B
FE
06
F8
0F
DC
01
EF
EF
0D
F8
F1
0F
F9
F9
DF
0D
E4
D9
F9
2B
EE
E8
09
40
F9
2F
0A
FA
E8
E9
01
0E
E7
23
0A
D0
19
D3
0E
04
DA
2B
0F
E7
E6
F3
FB
2C
D3
36
19
0E
FE
03
1A
2E
D0
23
32
F1
E1
2A
09
1B
F6
29
3E
CE
15
0A
E8
EC
DF
44
28
D9
FD
FA
09
FF
E7
08
EC
F4
EF
01
19
11
F3
EB
EB
ED
1A
DD
15
0F
07
FE
EB
FF
D6
D5
04
F5
07
10
E6
0C
E4
DA
0C
08
EE
06
D8
F8
F1
E0
01
08
FE
F9
F3
DF
03
E6
F4
0A
FF
F2
E0
D9
EB
01
10
02
FC
0D
14
EA
F8
03
18
F3
09
FC
0C
0B
1F
F5
05
F7
F9
00
FD
04
FC
16
07
00
DF
F9
FA
0C
FB
F4
F7
F0
EB
07
17
20
FB
F0
EC
04
00
F8
F2
2D
F9
D9
0B
55
EC
33
26
F8
0A
F2
0B
25
DF
29
05
D1
14
E2
F2
12
DD
28
FC
EC
08
FD
02
3A
E6
29
25
0D
10
09
0A
32
F5
17
2D
EA
FB
35
FC
28
D0
29
2F
CB
06
0F
04
F2
F3
34
1C
F4
08
05
FC
FD
ED
0F
F8
E9
F0
09
16
FE
02
FF
D4
EA
0A
EB
0C
F8
F4
09
F4
F2
07
D9
0B
FD
E4
1A
EF
14
08
D8
FC
F5
E1
03
CF
F1
11
DB
15
07
10
F8
FC
E2
F1
F5
DE
FF
E7
01
EA
EE
E9
02
0A
18
EC
FE
F9
09
F3
0E
02
F1
FC
F9
16
05
07
09
0D
0E
F7
04
ED
04
DB
04
04
F6
DC
EE
EC
F5
FE
F4
02
E4
0B
E0
17
0A
E0
F7
DC
11
D6
FE
FA
35
DE
E6
06
44
F9
35
0A
FB
FF
EC
FB
16
D9
23
0F
D4
EF
DF
06
0B
D9
25
FF
F8
EB
F4
0A
20
E5
22
1C
EB
F4
0D
0C
19
E1
1E
31
E9
FB
20
F0
23
FE
35
28
B4
06
28
E7
FB
E9
2A
1A
EF
15
0C
ED
F1
04
0E
0A
FF
16
01
04
17
EA
EC
DC
F4
F7
04
16
1F
0A
11
EF
12
DF
D9
0C
F5
10
02
F3
10
03
D3
F5
0B
02
00
CB
F6
23
F6
F1
1F
F9
FC
F0
F6
FE
FA
F8
F9
F4
FB
0A
D6
29
09
02
00
FC
FC
EE
F5
05
FB
1E
F1
F1
F3
02
EC
1C
0C
0E
0B
04
F6
E7
14
08
27
01
FE
E5
E7
01
1B
F0
F6
FF
F4
E7
EE
18
0D
08
F8
D6
07
F4
08
FF
1D
13
E7
0B
42
EF
28
00
F9
F0
F3
00
15
FD
1A
22
C1
F5
E0
F8
09
E6
0E
05
F9
F6
01
01
13
DC
1F
0D
FB
04
08
0B
15
DB
28
34
ED
0B
3A
ED
16
E3
39
32
C4
0B
20
E7
F7
02
35
24
FC
E8
1C
F8
F1
FA
0C
1D
F2
05
FF
12
0F
01
EC
EA
F0
03
E7
15
FD
05
08
E0
1B
F8
E1
1E
ED
DC
11
EB
FD
1A
EB
09
F9
F3
00
E8
E6
08
F7
DE
1E
00
00
00
E4
09
F2
F8
E7
F2
0D
FA
E2
0F
04
08
F2
13
F8
F9
F1
FF
03
11
12
E9
F4
13
07
0C
13
2B
F7
DD
F9
E9
FA
DB
1D
F6
F6
F9
E4
F6
0D
EB
0D
08
E7
E7
F2
03
1D
D9
D8
E4
F7
EA
DC
DC
26
02
EE
FA
38
FC
1A
EF
DA
F1
DF
0B
1A
E0
16
16
DC
04
FA
F7
EE
02
25
02
F5
FB
08
F6
11
F5
12
08
F4
E3
1B
F5
3A
DC
20
2E
E0
F5
30
E4
09
F8
3C
45
D3
08
23
D8
09
E4
35
30
E4
FE
07
F6
05
01
05
FF
F6
0D
02
FD
03
05
0D
00
F5
D6
CF
19
06
EE
0D
F2
01
18
EF
12
04
02
21
D9
02
0D
EB
E9
13
08
15
F0
EE
03
EC
06
17
ED
00
1A
EE
F2
FC
09
EC
F8
F8
18
F4
13
04
F6
02
F0
FC
FE
E3
01
0A
1C
1B
EC
0E
01
FB
08
11
F5
00
14
E6
12
07
F4
15
07
FC
FB
F5
F1
01
21
01
E9
E8
EF
DB
DF
1F
0A
DD
D1
16
04
FD
E1
24
F0
EC
F4
38
E1
16
FD
E0
EC
E7
0C
2A
04
0C
17
DC
E8
F2
03
EC
FD
19
FE
F3
F0
F3
FB
18
DF
1C
00
09
F4
18
0B
1F
F6
34
22
F4
22
45
EB
23
CF
32
34
F2
F9
29
D4
F7
0B
38
2A
09
E6
05
01
0B
FE
17
FB
00
EB
08
FD
0C
02
1D
EA
FA
0B
EB
09
FE
FE
10
E0
F6
06
F0
15
F3
09
11
E4
F9
07
E1
ED
17
05
0C
E1
DB
F2
F8
EA
22
E9
02
00
FD
E7
F2
F8
F9
FC
FA
E8
E8
EB
E9
0D
04
F8
F8
F7
F8
0D
03
0C
13
F2
0F
F9
E6
FD
0F
19
08
F7
FA
01
F3
12
1E
05
0A
09
FD
0B
07
08
02
FC
D6
E8
14
01
13
19
EF
DA
0E
0A
07
EF
34
E0
05
1E
4E
E9
19
FF
E1
04
FB
0E
11
05
1F
15
D4
EC
F9
E7
F9
FC
25
FF
06
F2
01
F6
2A
17
24
11
F3
1A
1F
FB
32
EB
33
2F
00
08
2C
F0
26
F4
25
36
D9
F1
1A
D5
EC
F9
32
27
FC
F4
F0
E3
FA
0C
16
17
FA
F9
E5
1F
1F
FA
FF
FD
0D
02
E9
0E
F0
12
09
DA
02
EA
E5
0A
FF
03
13
F0
0A
F9
E9
FF
10
FC
1A
F3
F7
0F
F4
FA
F4
05
10
0A
DD
09
F7
F0
E5
07
07
FA
02
D7
F8
F7
01
FB
0E
F8
07
0F
FE
03
12
05
09
13
F8
DC
FD
27
0F
EC
F7
07
00
FC
12
F8
FB
EA
E4
E9
E9
E0
FF
DC
D6
EB
F2
F7
0D
1B
E9
C4
06
00
FD
04
46
F9
E9
13
2D
0C
1F
F8
D3
0C
14
11
05
E5
27
08
C5
EF
DF
DD
04
F8
11
10
F0
E7
FB
03
3C
E7
14
0C
F4
F6
1B
0A
23
F2
2D
1A
08
FF
32
E7
1A
05
2B
34
F1
0A
00
E8
02
DF
2C
2A
03
E6
FC
EF
FC
E4
03
01
03
EE
E9
15
05
03
13
11
0E
EE
F5
22
1B
0E
FD
F3
0A
02
DD
20
EB
06
F8
E2
06
0E
DE
0D
F9
16
1C
0C
E0
F0
EC
0C
0F
F2
27
1D
DE
E6
F0
F9
F0
02
0A
07
06
F9
0F
FA
F0
EE
F1
F7
FF
02
0B
0D
1B
EE
F6
05
FF
1C
17
04
05
17
00
FF
0D
F3
23
10
FD
05
FB
EA
03
10
07
D7
F7
FF
F3
F1
17
ED
D3
CB
14
1C
F5
03
47
F6
F7
F2
3E
F2
22
F4
ED
FC
EE
0B
F4
F1
25
10
D0
F6
00
EF
10
FC
15
E5
DB
F3
EA
10
22
F2
2B
11
F9
0A
FC
F5
53
16
25
43
E0
0E
13
FC
2D
E2
55
65
F4
08
01
DF
0A
00
49
1C
FE
DF
EF
F2
F9
F6
FD
FF
F3
02
F6
14
0B
E8
09
FC
FC
E2
E5
11
03
09
FB
06
10
1A
F3
0D
FA
0A
D5
F5
1A
11
F2
FC
1F
FE
0E
E4
EF
D7
EE
06
1E
04
12
28
F7
0E
06
F8
EE
F0
1A
01
F7
FD
03
11
19
10
04
FB
D7
FA
16
06
07
23
FA
14
11
F1
12
10
04
E1
EE
F7
21
0E
0A
0A
F8
07
0A
EE
03
1F
FA
C4
EC
12
01
1E
FD
F1
E8
CC
F4
17
FF
DD
45
10
EE
FA
3D
E7
27
DD
D7
F9
F4
F6
06
F8
1E
13
E7
E2
F1
E3
F3
F7
18
12
E4
0A
DB
FF
FF
FE
20
09
00
F7
23
F6
2D
14
26
28
E5
FF
0F
E3
1D
E8
56
43
E7
FB
F9
E6
E9
E2
19
19
08
FA
F3
E5
23
07
0F
F8
F8
F3
FC
11
2A
05
F4
F1
FA
FB
F1
1E
13
0F
F9
F5
FA
09
F9
03
F0
F0
E7
EC
F1
0C
E6
EE
F6
20
0F
E9
00
F4
FE
F0
13
0A
17
13
EE
13
FB
FF
F8
FD
F4
E2
E8
06
FC
14
03
17
00
03
E6
FD
F2
12
12
20
EB
10
02
F7
13
0D
11
FD
DE
F5
07
F3
04
FF
06
05
FB
EA
F0
0A
00
B5
E8
1A
03
FE
0D
1A
E7
C0
D6
DC
F6
F8
39
F5
D5
F8
22
FA
22
05
D0
F4
2D
FC
00
0A
1B
FC
E6
09
14
FA
00
1D
1A
FD
F3
18
FC
EB
15
F5
0E
0A
F3
F1
1B
05
14
03
2D
27
FB
18
22
EF
F6
06
28
2B
DE
EC
EF
E8
D3
FE
17
12
01
13
05
F7
00
DE
F3
E5
03
FB
07
0B
FD
DC
DF
03
0C
00
FA
06
0E
02
05
FA
FD
ED
09
0C
FD
FB
0C
F0
E4
04
D6
F3
09
0A
F9
F8
E2
EF
DF
F0
F8
03
0F
20
F4
E3
F8
02
E2
E5
25
0F
EB
F8
E9
FD
04
0C
0C
FE
01
08
FC
FC
1B
01
E5
13
F9
E8
07
20
FE
06
EC
FE
09
EF
14
04
0B
F5
E7
FF
0A
02
09
E9
C4
16
0D
E7
15
14
F1
D0
EC
E7
F0
F0
33
05
DA
F2
0B
08
38
01
07
FD
D8
06
D9
F0
16
1F
FF
F7
E0
D8
F3
F7
12
08
0E
05
F6
03
EF
1B
12
F4
E8
0F
02
FD
F2
16
26
22
E0
07
F7
E6
EB
16
22
1A
0B
01
F5
EA
D2
22
0F
13
15
08
F0
FB
ED
11
F3
E9
FF
DE
0A
18
0F
02
FB
F9
FB
E8
12
18
01
F4
F6
F8
F0
1F
24
15
F5
00
1C
F9
01
0A
11
D5
01
12
02
EC
FD
07
F2
EA
F9
FF
F7
FB
15
EC
E5
01
EB
05
F9
10
FE
28
E5
0A
EB
1B
0E
F9
DE
02
15
0A
FF
FE
11
24
03
F8
00
08
FD
0E
EB
F3
F6
F7
14
0E
FC
F5
DE
F5
