FA
EE
28
C4
EE
FE
CF
0F
1E
F7
1F
06
0D
ED
E9
83
5C
C9
18
E3
F9
14
28
2A
09
F2
18
34
62
EA
EF
D6
36
B7
1E
F7
3B
22
28
39
C2
9D
F1
07
5E
0B
1E
2C
07
DD
FD
C3
D8
4A
F3
28
A7
16
D5
F1
C3
05
FD
27
CC
BA
1E
CB
D7
3D
D4
29
00
FD
28
44
FB
F2
F3
B6
4F
CF
09
F0
FA
45
41
49
05
C5
17
5D
64
00
F8
EE
48
17
F4
E9
2E
4B
2E
3F
DF
EE
E4
08
38
F1
16
13
2F
2A
ED
C2
BF
36
F4
02
CF
AA
D2
FA
AC
13
F6
E8
B5
68
12
B6
CE
0E
DF
58
E4
49
14
15
03
ED
FA
D4
40
A7
F6
CA
FB
00
4D
5E
E4
55
1D
30
45
E2
FC
01
48
81
E9
F1
1E
FC
21
32
ED
4B
ED
FA
2F
D2
FA
FB
4D
A7
ED
C7
92
DF
E6
DB
F8
1F
D9
FA
91
F5
E5
C5
8C
17
0F
B9
D2
C7
FE
68
D3
51
2E
49
1F
BD
01
EB
31
17
F0
EF
FF
B8
5D
62
02
0F
1F
78
6A
B0
F9
FE
4F
CC
D3
FF
0A
96
1E
2C
ED
BC
F4
0B
42
C8
F1
EA
6E
58
EC
C4
99
AE
DC
D7
12
87
D8
06
A2
C2
E6
A2
81
24
E9
AC
CE
B6
15
6B
BA
00
19
58
29
B6
FE
01
25
96
D2
EC
0E
9C
60
5F
E9
F4
F5
69
6B
B5
E1
F6
5E
B7
B1
E5
11
9B
18
10
E3
E1
E0
0D
4F
A5
DE
E5
6F
E2
FB
99
82
A5
C9
B6
1F
46
F3
04
C6
CA
D6
97
90
1D
C0
95
F0
19
30
77
C2
3C
FA
24
02
4D
06
07
15
02
B0
E7
27
22
67
4D
F1
C2
F4
64
38
40
DF
F6
3A
43
B8
E1
0D
15
11
FE
F5
EC
F9
E5
22
36
E4
FD
6D
BF
0D
8E
B7
15
BF
9F
16
AD
0A
02
8E
14
DA
9B
8E
C3
A6
CA
F5
7F
51
56
C1
B3
D9
35
F8
7F
04
0A
03
3F
BE
EE
19
68
78
50
F9
A7
F7
7F
1D
76
DB
E8
33
B9
D7
E7
E8
69
15
F7
F5
B2
FE
E8
F3
5B
E2
06
6E
09
36
B7
CC
38
BF
8A
28
14
2E
18
A7
26
CB
B2
95
37
AC
CD
D7
51
67
44
CD
31
DE
04
E9
6A
00
13
0A
0C
DD
16
E0
24
7E
49
F1
B5
04
52
01
50
DD
F5
26
C9
F4
F8
D6
31
1B
D0
EF
03
0A
C0
D4
4F
E2
FD
72
F4
5A
C9
D7
31
C0
8E
17
5E
57
00
B4
3A
C8
D2
92
32
CB
D8
C3
A6
63
26
CF
BC
E8
57
9B
E9
F7
1C
EA
12
F1
F7
DB
B9
7F
16
F6
E0
08
70
A2
ED
CC
F1
1E
10
04
F7
A9
B7
34
AA
0A
DB
2A
A6
B6
10
EA
F8
5E
06
72
DD
D0
B9
D6
A0
10
9F
5A
17
B1
E7
C0
01
9D
01
E0
E0
AF
9C
46
D8
AF
E8
CE
02
8A
BB
E4
F6
F3
36
07
CA
CB
87
6E
CC
D6
9E
0A
2A
81
D7
CF
C0
04
EB
24
CC
C9
95
33
81
F7
AD
1C
9C
A4
D6
F9
E6
3D
84
7F
CC
D4
B0
F4
A2
E9
3C
36
EE
D5
CF
CD
2D
